. 13641535
: 9146676
, 9016480
I 5988937
you 4699591
to 4097921
? 3365350
the 3162377
's 2731988
that 2257039
a 2191282
and 2133808
n't 1996728
it 1807408
do 1429116
of 1377558
is 1355185
me 1310700
You 1245851
know 1114023
in 1113336
'm 995684
for 961517
have 934940
-- 914434
was 907344
on 882515
be 858361
not 851009
with 843276
he 839897
this 834446
her 815424
're 814743
what 812324
my 802197
just 780089
your 711703
she 694968
we 679039
about 673864
! 637195
are 586183
him 576235
out 563109
right 560837
It 558101
did 554875
And 530323
Oh 517781
all 517417
) 512062
( 510225
What 507619
Well 505812
] 505106
[ 504050
so 502796
No 500247
up 497760
... 495835
Yeah 490562
get 488333
want 485137
but 483988
- 483826
going 467229
at 466004
here 465135
can 445446
like 434385
think 421886
if 414009
He 395993
'll 393574
no 393256
would 387370
go 380375
there 376463
his 356148
She 337074
" 335500
got 324758
as 323916
back 322395
now 318917
've 318005
That 314741
But 310375
one 307609
na 305701
gon 303255
could 297464
We 297332
So 291011
from 287072
will 281475
time 281292
really 280230
see 278802
mean 275100
The 274773
they 274115
were 273930
when 263926
ca 254061
had 253593
how 247793
Okay 246742
need 238787
tell 235021
good 234859
been 233886
way 227575
or 222403
has 220237
something 220016
does 217802
an 217176
who 210651
love 208396
okay 206225
make 205670
us 205245
Jack 202026
Do 201093
some 196903
because 196467
take 195535
over 192978
say 192034
then 191838
Hey 190232
too 187008
come 186178
should 184748
let 184071
little 183540
them 179916
Carly 177203
why 175053
more 173483
never 171583
life 167153
'd 166729
am 165214
Sonny 164226
down 164024
Why 160441
sure 157575
much 157329
off 156082
sorry 155084
by 154598
into 153620
said 153580
Yes 151636
our 151462
Michael 151035
thing 150765
How 149818
All 149049
anything 148329
look 147633
well 147455
even 143515
help 143150
doing 143005
This 142551
man 139707
very 139434
still 138861
told 135384
thought 134671
away 134598
Nick 133976
talk 131317
any 130758
again 129281
find 127254
Hope 124626
baby 124569
Look 124446
If 124183
They 122972
where 119682
John 117152
wanted 115682
give 115204
things 115128
everything 113919
only 113206
other 110790
There 110472
than 109803
Brooke 107465
before 105753
work 105257
Victor 105193
Is 105103
Thank 104880
home 103060
better 102925
Sighs 102916
family 102859
trying 102343
Jason 102164
son 101977
through 101597
call 100748
feel 100363
around 99979
Just 99258
together 98188
after 98020
believe 97765
happened 97463
Come 97075
father 96996
two 96904
ever 96687
people 96423
keep 96343
night 96105
Sami 95663
Are 95616
being 94961
Now 94819
Sam 94583
Paul 94464
uh 94139
Lily 93738
God 92989
lot 92956
A 90945
long 90310
day 89764
Bo 89716
maybe 88545
re@@ 88384
care 88119
always 87395
made 87378
Uh 87195
nothing 87115
S@@ 86749
first 86327
mother 85619
Ryan 84612
talking 84562
Katie 84546
please 83958
Let 83522
put 83316
room 83282
Nicole 82071
fine 81987
Will 81979
yeah 81207
done 80973
stop 80725
Adam 80593
Because 80383
My 80240
Ridge 80189
kind 80090
wrong 79786
leave 79646
their 78590
guy 78019
great 77953
Kate 77574
Kendall 77344
last 77254
wo 76905
getting 76870
Not 75233
understand 74785
else 74357
wait 72582
hear 72096
Did 71824
Bill 71467
door 71256
happy 71106
Daniel 70518
tells 70221
own 70121
wants 70090
Maybe 70026
stay 69979
phone 69862
David 69578
Eric 69451
place 69335
Rafe 69314
Brady 69205
might 68330
ok 68213
looks 68091
in@@ 67651
Ok 67477
Phyllis 67452
came 67318
course 67201
Luke 66766
bad 66246
Todd 65856
someone 65822
idea 65819
un@@ 65600
another 64775
Billy 64607
best 64597
looking 64502
enough 64410
says 64242
both 63843
Emily 63403
hope 62885
house 62598
big 62514
left 62441
guess 62415
went 62401
um 62299
woman 62273
P@@ 62200
s 62078
those 62000
Kevin 61975
Jennifer 61918
Greenlee 61815
yourself 61813
mind 61523
mom 61499
hell 61433
d@@ 61347
Dr. 61112
try 60999
C@@ 60796
new 60769
Stephanie 60376
Sharon 60101
' 59855
actually 59698
knew 59518
dad 59507
Good 59485
Lucas 59438
hurt 59302
found 59286
Elizabeth 59048
already 58987
coming 58975
B@@ 58761
A@@ 58714
Liam 58624
same 58531
When 58479
these 58472
whole 58371
ed 58237
Where 58156
Victoria 57867
while 57720
guys 57703
i 57676
Mm 57464
p@@ 57461
DOCTOR 57256
happen 57130
t@@ 57084
remember 56740
es 56313
e@@ 55882
saw 55584
saying 55483
Your 55264
Chloe 55053
T@@ 54645
every 54273
daughter 53984
having 53905
Olivia 53827
Chuckles 53771
Steffy 53698
knows 53674
Lulu 53452
Please 53211
Right 53138
thinking 53074
Hi 53052
alone 53043
G@@ 52881
Rick 52521
huh 52472
Um 52442
J.R. 52359
ing 52019
job 51956
Rex 51703
ask 51702
head 51580
girl 51442
a@@ 51303
Then 51212
Theresa 51157
D@@ 51155
Alexis 51124
heard 50974
F@@ 50947
Erica 50767
must 50561
Patrick 50483
gets 50340
li@@ 50155
Jessica 49956
thank 49780
Nikolas 49722
Who 49618
Blair 49457
hard 49317
truth 49294
each 49238
s@@ 49191
Shawn 48932
face 48904
matter 48770
Chad 48734
able 48662
hospital 48244
Chelsea 48169
Zach 47814
Thanks 47787
l@@ 47640
Gwen 47486
Natalie 47347
K@@ 47290
myself 47190
Ethan 47067
Tad 47005
pretty 46970
took 46967
until 46956
money 46927
listen 46839
gone 46795
ri@@ 46439
soon 46421
Mom 46399
chance 46265
f@@ 46154
real 46079
deal 45974
Mr. 45726
end 45705
Nikki 45650
b@@ 45618
Marlena 45576
brother 45503
friend 45408
start 45372
needs 45263
telling 45203
married 45158
ready 45150
exactly 45116
Can 45097
Abby 45045
Laughs 44973
person 44960
probably 44852
dead 44673
wife 44661
business 44402
yes 44266
next 44252
Craig 44195
ation 44184
without 44069
goes 43966
Maxie 43961
m@@ 43755
nice 43497
W@@ 43463
E@@ 43442
Reva 43434
part 43371
t 43371
hmm 43299
comes 43294
Taylor 43294
Josh 43150
problem 43117
g@@ 43112
reason 43055
kill 43044
car 42999
Ava 42897
er 42751
H@@ 42720
ate 42670
wedding 42613
yet 42533
name 42523
ting 42431
which 42380
y@@ 42322
EJ 42295
ts 42180
Cassie 42175
today 42108
may 42099
Dante 41850
old 41796
c@@ 41638
heart 41583
Phoebe 41527
worry 41471
since 41431
M@@ 41325
In 41301
Robin 41297
Starr 41277
world 41256
making 41237
case 41234
anyone 41196
L@@ 41147
o 41139
w@@ 41138
child 40970
Philip 40916
tonight 40888
working 40862
true 40837
st@@ 40664
Dorian 40638
Hmm 40618
show 40485
Listen 40445
Alan 40392
makes 40302
Jax 40113
taking 39943
Dad 39852
Of 39793
Brad 39728
tried 39640
Really 39572
lost 39502
used 39499
Ashley 39224
o@@ 39215
called 39144
supposed 38918
ted 38812
run 38735
second 38735
Wait 38728
years 38672
between 38665
change 38641
Babe 38566
Johnny 38432
anymore 38405
few 38384
Belle 38338
move 38213
minute 38087
Lucky 37867
town 37744
Henry 37589
Dusty 37444
v@@ 37391
Noah 37358
hand 37347
I@@ 37322
i@@ 37156
Kay 37079
Joey 37029
live 36964
means 36821
en@@ 36705
wish 36478
sister 36462
trust 36301
husband 35992
seen 35773
use 35756
walks 35709
whatever 35636
glad 35514
bit 35389
rest 35383
Emma 35380
gave 35364
behind 35300
As 35183
friends 35092
de@@ 35048
er@@ 34929
di@@ 34901
Harley 34890
many 34872
Julian 34810
m 34746
fact 34721
hey 34695
against 34578
kids 34571
walk 34568
Thomas 34565
later 34557
d 34524
takes 34482
least 34425
bed 34320
Frasier 34263
point 34242
Viki 34008
hold 33998
Alison 33874
side 33764
asked 33699
ro@@ 33698
Lizzie 33607
Doctor 33581
once 33577
most 33365
Anna 33346
important 33169
hate 33039
Annie 33036
u@@ 33019
For 32991
Neil 32990
Jake 32965
hands 32908
Wyatt 32848
Ric 32847
Meg 32721
promise 32715
everyone 32567
worried 32468
crazy 32356
ers 32313
Luis 32202
turn 32198
though 32172
boy 32067
LORELAI 32029
Max 31875
V@@ 31854
Jonathan 31819
police 31748
killed 31743
Gabi 31743
Maggie 31728
ra@@ 31689
ha@@ 31621
R@@ 31560
late 31549
Summer 31514
Kelly 31475
set 31471
le@@ 31399
ds 31362
Go 31332
O@@ 31331
bring 31311
somebody 31273
Man 31269
such 31189
Chris 31175
check 31169
Here 31011
p 31001
g 30949
Gus 30933
k 30875
stuff 30748
upset 30726
To 30713
also 30683
shot 30552
less 30547
ly 30452
office 30397
al 30375
k@@ 30360
Get 30341
Steve 30313
word 30279
N@@ 30275
beautiful 30207
Ah 30044
feeling 30042
Morgan 30033
ta 29980
meet 29932
Y@@ 29906
either 29816
Holden 29799
kid 29791
rings 29712
news 29621
oh 29558
open 29530
company 29504
Or 29405
Tracy 29352
Hello 29243
or@@ 29202
far 29197
thinks 29190
Abigail 29177
Like 29150
See 29123
Krystal 29093
Spinelli 29036
past 29025
under 28985
le 28958
co@@ 28808
ated 28757
plan 28756
stand 28721
n@@ 28684
close 28652
on@@ 28624
turns 28599
Bianca 28558
eyes 28557
Cane 28511
Antonio 28468
Caroline 28460
Ben 28373
Have 28350
y 28297
party 28294
Eve 28288
Wow 28221
Casey 27968
lo@@ 27873
dis@@ 27867
r@@ 27822
Sorry 27814
ago 27798
Beth 27756
lie 27719
front 27664
Paige 27623
waiting 27577
Sheridan 27573
Scott 27568
an@@ 27532
Mike 27463
th@@ 27459
marriage 27441
ti@@ 27387
afraid 27343
morning 27336
Quinn 27312
lose 27311
forget 27307
break 27245
Melanie 27225
Kayla 27138
Jill 27089
fun 27054
sp@@ 27051
Dinah 27020
n 26991
INT 26944
Jeffrey 26926
con@@ 26853
fight 26763
different 26624
e 26623
loved 26594
safe 26563
At 26547
Nothing 26546
Roman 26544
doctor 26423
moment 26298
trouble 26277
Bridget 26142
question 26070
no@@ 26054
school 26049
Tell 26041
line 26023
times 26010
Cole 25980
leaving 25951
Barbara 25871
answer 25845
loves 25812
ta@@ 25791
easy 25781
Lauren 25585
Stefano 25585
Lucy 25493
couple 25484
play 25424
sit 25322
Nora 25073
mine 25055
voice 25044
se 25013
honey 24985
king 24984
RORY 24948
Nathan 24857
almost 24819
finally 24783
Spencer 24705
as@@ 24689
mo@@ 24611
perfect 24403
table 24388
alive 24342
days 24334
ac@@ 24333
miss 24330
Devon 24235
children 24214
ating 24143
Marina 24078
asking 24054
story 24044
E.J. 23972
ter 23957
lying 23862
Mrs. 23824
inside 23822
gun 23750
thanks 23741
ma@@ 23692
po@@ 23659
Monica 23650
ar@@ 23645
figure 23625
Franco 23589
started 23574
al@@ 23556
living 23294
clear 23237
needed 23182
hit 23137
Amanda 23132
die 23047
save 23042
along 23038
death 23028
Tony 22969
music 22941
l 22906
pay 22904
ir@@ 22855
be@@ 22850
protect 22816
lives 22802
three 22754
Piper 22708
Stop 22605
sees 22589
running 22574
el@@ 22552
seems 22529
anybody 22398
tion 22316
fault 22259
se@@ 22246
outside 22220
ent 22158
Aidan 22143
One 22119
am@@ 22115
everybody 22089
talked 22054
yours 22033
ks 22020
; 22006
himself 21999
serious 21994
relationship 21923
Mac 21915
its 21905
Honey 21811
Sure 21801
damn 21788
ring 21786
Parker 21779
Frank 21770
watch 21759
ca@@ 21754
Marty 21752
it@@ 21722
Excuse 21703
changed 21703
Jamie 21636
Courtney 21629
meeting 21625
anyway 21552
Donna 21517
Rachel 21514
brought 21490
S 21400
leaves 21394
Does 21391
Would 21365
meant 21365
felt 21354
seem 21344
tomorrow 21321
asks 21212
Margo 21207
Jordan 21140
free 21130
b 21103
sick 21097
Clint 21089
finds 21088
Amber 21068
mistake 21058
to@@ 21052
date 20996
seeing 20963
blood 20880
re 20878
Jesse 20876
st 20871
ling 20869
handle 20846
ahead 20843
giving 20814
Bye 20804
god 20794
si@@ 20746
j@@ 20744
control 20698
Danny 20686
parents 20675
men 20674
U@@ 20671
test 20635
wanna 20632
dinner 20630
sleep 20597
happens 20570
Edmund 20477
year 20445
realize 20444
Actually 20441
T 20438
body 20438
choice 20437
D 20424
ab@@ 20397
secret 20391
at@@ 20366
Martin 20356
ru@@ 20310
Janet 20310
worse 20295
Fox 20292
Gloria 20200
ch@@ 20192
pre@@ 20162
'cause 20090
led 20087
sound 20062
te 20049
Lexie 20027
Dylan 20026
possible 20020
Niles 20004
Justin 20003
Marcie 19941
ding 19936
feelings 19877
prison 19834
spend 19790
Kyle 19772
Rosanna 19758
Cristian 19727
mi@@ 19691
drink 19690
died 19677
Kristina 19673
Molly 19641
opens 19595
feels 19587
Buffy 19575
fire 19559
Whitney 19539
Ross 19504
herself 19462
sense 19421
Jackie 19351
Mallet 19341
murder 19317
Ivy 19310
for@@ 19295
ad@@ 19282
Dillon 19282
ex@@ 19269
J@@ 19259
Pam 19259
calls 19198
kiss 19193
J.T. 19191
pro@@ 19173
After 19147
taken 19144
do@@ 19136
met 19063
Faith 19005
wonderful 18961
minutes 18951
la@@ 18935
Nina 18860
pick 18826
Gigi 18802
pe@@ 18787
Kristen 18781
sitting 18707
future 18673
anywhere 18597
Abe 18558
Mimi 18538
light 18505
pregnant 18505
ps 18498
ls 18484
pain 18459
bu@@ 18457
sounds 18438
completely 18397
playing 18395
che@@ 18392
ine 18382
stupid 18360
Jen 18341
es@@ 18336
Damon 18302
de 18274
blame 18274
Marissa 18194
les 18190
Bonnie 18188
lucky 18136
th 18115
Cut 18064
standing 18053
starts 18028
questions 18014
full 17998
sc@@ 17981
ations 17969
young 17936
Buzz 17922
Phillip 17891
Sarah 17867
ge 17845
ho@@ 17777
quite 17768
x 17755
marry 17751
appreciate 17721
scared 17691
Tammy 17672
kidding 17642
order 17606
Daisy 17569
Ted 17547
qu@@ 17455
JJ 17449
z@@ 17438
situation 17419
me@@ 17393
Everything 17362
decision 17359
prove 17344
James 17340
Maya 17335
turned 17280
book 17269
is@@ 17263
Fine 17248
picture 17224
Ma@@ 17223
el 17207
known 17159
dy 17148
amazing 17137
involved 17121
Me 17093
calling 17059
explain 17058
cut 17057
ded 17046
evidence 17043
der 17042
Xander 17039
Chandler 17039
id@@ 17021
jail 17018
Fancy 17014
ked 16952
game 16909
ous 16903
Great 16777
holding 16753
Huh 16749
Take 16734
Tom 16654
Claire 16636
sighs 16624
sent 16620
angry 16611
tries 16601
Ciara 16598
ul@@ 16569
.@@ 16547
sign 16529
bo@@ 16498
ty 16480
Avery 16479
'S 16476
et 16472
sweet 16472
sa@@ 16428
gives 16412
ry 16403
Diane 16356
With 16355
Charlie 16354
ge@@ 16340
sing 16315
Téa 16315
months 16285
ol@@ 16238
ou@@ 16226
Which 16200
Alex 16199
funny 16169
h@@ 16160
over@@ 16133
est 16064
gu@@ 16063
Colby 16035
high 16008
Tess 16008
Mary 15971
half 15948
read 15942
ve 15940
BOOTH 15873
information 15863
Billie 15824
Door 15798
Heather 15781
laughs 15742
water 15738
Adriana 15738
deserve 15730
surprised 15721
coffee 15709
Stefan 15707
speak 15668
2 15637
sort 15603
Jared 15566
decided 15559
ves 15549
honest 15511
Claudia 15508
accident 15506
Sandy 15502
cool 15499
Colleen 15464
cell 15460
power 15457
kept 15438
hours 15436
walking 15386
ran 15357
sha@@ 15351
ms 15342
totally 15327
su@@ 15301
ates 15258
agree 15224
car@@ 15186
worked 15182
fa@@ 15178
Mar@@ 15174
Coop 15157
Whoa 15155
given 15154
step 15107
par@@ 15091
Scoffs 15091
happening 15088
Even 15080
fall 15077
Kiki 15068
strong 15062
c 15050
hoping 15050
ses 15022
Evangeline 15002
somewhere 14992
luck 14975
words 14940
using 14917
hot 14911
surprise 14903
Skye 14892
shut 14856
In@@ 14853
Sydney 14826
Natalia 14805
moving 14776
forever 14747
obviously 14738
watching 14728
apartment 14716
forgive 14705
Angel 14703
keeping 14682
missing 14676
Knock 14671
Liza 14645
bet 14608
lied 14604
expect 14604
longer 14560
man@@ 14559
Katherine 14552
message 14534
Something 14506
Shane 14489
straight 14476
ice 14466
oo@@ 14449
BRENNAN 14440
act 14426
top 14421
admit 14420
wa@@ 14413
hi@@ 14403
excuse 14401
Matt 14363
judge 14332
sh@@ 14321
Thorne 14310
special 14309
busy 14307
conversation 14299
puts 14287
Rebecca 14278
Leo 14271
missed 14263
ke 14257
definitely 14250
especially 14247
Mariah 14241
Woman 14232
fast 14218
Cell 14185
E 14182
win 14127
floor 14116
send 14097
Give 14085
age 14085
number 14073
sometimes 14070
buy 14068
Whatever 14063
Maddie 14009
court 14005
Sabrina 13997
Julie 13992
cha@@ 13976
proud 13969
worth 13922
tri@@ 13913
vi@@ 13907
women 13904
app@@ 13897
Nash 13890
concerned 13878
Austin 13873
Angie 13856
red 13845
en 13824
Christmas 13810
ha 13802
te@@ 13773
Li@@ 13766
board 13762
helping 13758
ne@@ 13755
Z@@ 13748
girls 13715
ance 13704
low 13680
mad 13667
Maria 13655
throw 13642
Y 13640
touch 13629
ass 13627
Was 13618
O 13605
per@@ 13585
forward 13581
D. 13566
x@@ 13562
pa@@ 13549
h 13513
Matthew 13506
w 13503
Brody 13495
min@@ 13493
De@@ 13479
caught 13419
Joe 13416
Simone 13394
ley 13384
so@@ 13379
ur@@ 13362
eye 13342
mar@@ 13338
favor 13330
ic@@ 13312
als 13269
weird 13261
Liberty 13260
stopped 13254
offer 13253
'Cause 13246
ker 13245
looked 13244
mess 13241
St@@ 13208
works 13187
fair 13186
eat 13183
guilty 13170
certainly 13160
Be@@ 13106
Logan 13103
pull 13096
wonder 13073
terrible 13071
Spike 13050
Brenda 13019
Langston 13016
ea@@ 13000
mp@@ 12995
New 12986
Michelle 12971
throat 12951
entire 12950
share 12945
absolutely 12940
Caleb 12928
ended 12913
Lucinda 12906
ER 12901
il@@ 12888
welcome 12879
com@@ 12869
Ooh 12866
AN@@ 12855
Georgie 12843
ant 12837
swear 12834
rather 12824
instead 12821
law 12803
lies 12772
personal 12771
ence 12770
f 12765
* 12759
whoa 12711
Derek 12705
putting 12692
Frankie 12688
ws 12684
Alistair 12683
ment 12674
DAY 12674
tr@@ 12665
accept 12653
ving 12651
broke 12650
On 12644
Cyrus 12638
Grissom 12623
AR@@ 12622
cu@@ 12586
Jane 12586
His 12585
bye 12571
Forrester 12571
ons 12563
Elena 12553
Ian 12552
ch 12514
om@@ 12510
sts 12498
problems 12497
Deacon 12494
plans 12488
r 12480
Oliver 12474
ck 12463
support 12451
station 12444
cl@@ 12441
mouth 12436
ton 12426
showed 12422
runs 12412
hang 12411
Sheldon 12406
Scene 12400
im@@ 12394
Lindsay 12381
Liz 12355
ins 12349
Aaron 12349
ze 12326
bi@@ 12324
gotten 12321
rea@@ 12307
starting 12292
ey 12250
walked 12245
Miguel 12243
box 12224
Judge 12212
ful 12175
dream 12163
ary 12130
Re@@ 12111
Could 12074
drive 12069
imagine 12039
drop 12036
ground 12030
bar 12030
ic 12020
piece 12010
list 11987
fe@@ 11970
ys 11969
gs 11967
custody 11963
middle 11953
food 11953
/ 11946
shows 11933
Mia 11928
ga@@ 11921
visit 11918
sed 11911
catch 11887
respect 11872
week 11870
Ms. 11868
mon@@ 11866
he@@ 11860
near 11845
THE 11838
ans 11826
five 11800
id 11797
smiles 11771
Seth 11768
Newman 11762
willing 11757
Our 11727
closes 11726
end@@ 11722
Kim 11698
sweetheart 11682
ally 11660
innocent 11656
staying 11654
Owen 11648
Hilary 11645
stops 11629
I. 11609
figured 11593
1 11592
bag 11573
nobody 11566
cold 11564
ver@@ 11552
Lorenzo 11549
2@@ 11519
ve@@ 11486
Vienna 11475
EN@@ 11460
Catherine 11458
hair 11439
Julia 11438
stick 11437
fighting 11426
cops 11423
Reese 11421
har@@ 11413
tired 11362
helped 11356
dress 11354
Sally 11346
Daphne 11345
ends 11334
gra@@ 11324
letting 11316
risk 11303
losing 11296
earlier 11291
lawyer 11286
Felicia 11281
hi 11277
Madison 11275
CH@@ 11272
arms 11260
trip 11260
Sage 11230
ges 11226
RE@@ 11201
team 11188
boys 11175
M 11171
hotel 11170
Eli 11151
Roxy 11137
GIBBS 11134
Greg 11129
sir 11118
wake 11115
Marshall 11100
Dru 11092
doubt 11090
saved 11084
smart 11073
Con@@ 11065
interested 11059
patient 11059
stands 11058
Ro@@ 11049
killer 11049
wing 11035
tu@@ 11029
us@@ 10993
sits 10992
Dawson 10980
moved 10967
fix 10965
ie 10957
apart 10956
Carrie 10950
ler 10941
none 10938
knowing 10932
pulls 10924
hour 10919
Her 10907
cover 10900
Willow 10871
fell 10846
Lo@@ 10845
shoot 10839
Nice 10834
the@@ 10831
Laura 10814
Both 10806
bar@@ 10802
Leonard 10789
charges 10776
hearing 10761
lea@@ 10742
key 10733
sleeping 10732
unless 10720
surgery 10709
fi@@ 10707
pp@@ 10699
small 10695
early 10694
honor 10690
ce 10664
els 10661
huge 10654
Rose 10626
Tabitha 10624
mat@@ 10623
ments 10615
responsible 10605
Theo 10578
position 10562
pri@@ 10559
daddy 10548
ex 10542
wn 10541
Damn 10541
calm 10536
ard 10535
About 10531
z 10522
Duke 10515
pping 10512
Phone 10511
lady 10496
become 10493
RI@@ 10486
club 10477
ster 10474
careful 10461
des 10452
dly 10443
road 10441
air 10434
Shayne 10429
ci@@ 10389
boyfriend 10388
up@@ 10383
EL@@ 10379
ran@@ 10378
ches 10377
tough 10364
owe 10360
convince 10359
arm 10353
Griffin 10337
advice 10336
clean 10333
follow 10327
R 10325
wearing 10325
LUKE 10321
ones 10312
promised 10304
worst 10303
proof 10296
Any 10288
Pilar 10280
Daddy 10279
Prue 10249
Silas 10227
building 10221
decide 10209
Jim 10194
med 10186
Nurse 10183
learn 10175
war@@ 10174
Dixie 10170
ter@@ 10154
IN@@ 10123
ged 10111
ries 10109
beat 10106
1@@ 10105
upstairs 10081
C 10071
Susan 10059
window 10029
ings 10027
Hold 10023
dance 10016
Lisa 10016
ST@@ 10010
op@@ 10001
Damian 9968
ay 9960
dear 9941
uc@@ 9940
laugh 9935
Jerry 9932
Jade 9925
pu@@ 9924
Co@@ 9920
discuss 9917
divorce 9914
Su@@ 9907
Officer 9887
kitchen 9886
au@@ 9877
paper 9868
ming 9864
spent 9862
weeks 9853
difficult 9848
Hal 9834
present 9832
acting 9818
wall 9796
ff@@ 9790
plane 9782
dangerous 9779
wondering 9770
enters 9765
attention 9765
papers 9764
history 9753
Al@@ 9742
born 9736
go@@ 9731
gi@@ 9730
ship 9729
sex 9726
ll 9723
Never 9715
ah 9715
private 9688
dark 9676
tt@@ 9670
push 9663
ering 9657
tra@@ 9656
lly 9655
realized 9645
cop 9643
single 9619
security 9618
planning 9616
Got 9605
Tucker 9605
col@@ 9603
R.J. 9594
apologize 9587
ways 9583
ba@@ 9579
grateful 9576
pped 9566
whether 9564
ning 9547
across 9544
crime 9531
horrible 9514
-@@ 9483
u 9452
Roz 9447
ver 9445
Simon 9442
desk 9437
rid 9427
feet 9419
Veronica 9401
zed 9393
Di@@ 9391
na@@ 9380
till 9377
LE@@ 9361
Ha 9361
count 9348
ven@@ 9335
clothes 9334
cause 9334
Adrienne 9320
Nobody 9317
possibly 9303
hiding 9300
gift 9284
Dwight 9281
EXT 9278
join 9270
lately 9269
B 9262
Pacey 9257
pi@@ 9255
broken 9255
ni@@ 9254
Ford 9233
Dani 9230
ya 9229
By 9222
bl@@ 9218
holds 9210
sake 9207
ined 9206
smile 9206
listening 9197
Robert 9191
quiet 9178
LA@@ 9172
Ned 9169
Me@@ 9163
focus 9159
results 9159
Someone 9145
Be 9132
we@@ 9130
finish 9124
fin@@ 9114
eve 9102
memory 9089
Mother 9086
crying 9068
RO@@ 9060
ity 9047
guard 9036
mu@@ 9035
Le@@ 9030
Amy 9027
Po@@ 9023
N 9023
du@@ 9019
3 9006
land 9000
killing 8996
forgot 8986
lead 8984
Brian 8977
br@@ 8956
locked 8953
Arthur 8951
boss 8949
lets 8947
Ca 8946
Penny 8936
return 8931
wear 8931
da@@ 8920
mor@@ 8918
four 8909
wi@@ 8906
Salem 8898
keeps 8890
normal 8889
finished 8885
Clears 8882
deep 8881
ors 8878
matters 8878
ining 8875
mention 8874
A.J. 8870
simple 8865
5 8835
gh@@ 8829
self 8822
L 8813
ging 8805
VERONICA 8804
ear@@ 8794
breaking 8788
press 8776
ball 8773
girlfriend 8772
cor@@ 8768
Connie 8762
dra@@ 8759
answers 8758
Alice 8758
bitch 8756
ke@@ 8754
agreed 8748
Everyone 8745
Andy 8729
Hayden 8722
il 8721
except 8716
ride 8712
continues 8711
'@@ 8699
gr@@ 8696
Edward 8695
ator 8684
Baby 8683
TONY 8682
Mmm 8676
Cameron 8673
From 8670
ner 8670
Very 8669
card 8657
sho@@ 8657
pass 8656
Aiden 8656
seat 8653
Finn 8650
stuck 8646
short 8645
Ca@@ 8611
slept 8610
ely 8597
heads 8595
TO 8586
Gasps 8576
Alexandra 8572
Mo@@ 8566
To@@ 8565
Rory 8559
chuckles 8558
Nate 8550
ble 8548
Samantha 8547
ens 8546
favorite 8545
ger 8542
Some 8534
ties 8530
Haley 8530
Vivian 8526
sm@@ 8521
excited 8519
bs 8502
OR@@ 8489
Father 8487
computer 8485
fully 8474
million 8474
lunch 8471
First 8465
finding 8454
quickly 8449
towards 8444
onto 8444
beginning 8432
Keith 8424
out@@ 8423
Do@@ 8414
Bob 8414
Ar@@ 8407
ent@@ 8386
cra@@ 8383
ph@@ 8381
sta@@ 8381
glass 8357
black 8345
hanging 8344
ROOM 8340
Valerie 8334
charge 8327
hide 8324
camera 8310
Anthony 8301
Merlin 8289
K 8282
Bobby 8280
fl@@ 8270
grabs 8269
track 8257
Arianna 8246
ten@@ 8238
Car@@ 8235
3@@ 8214
arrested 8207
ev@@ 8204
peace 8195
closer 8188
ck@@ 8185
certain 8163
Anything 8163
under@@ 8158
danger 8155
seriously 8152
sad 8146
Howard 8141
ion 8134
continue 8125
force 8098
Mitch 8098
tive 8091
arrest 8091
scene 8090
ky 8087
Meredith 8081
Mel 8072
drinking 8071
points 8071
0@@ 8042
ER@@ 8038
Little 8035
inter@@ 8007
blow 8005
Only 8002
chair 7987
enjoy 7983
faith 7975
lic@@ 7973
10 7960
Sara 7959
mistakes 7956
evening 7955
tie 7948
mb@@ 7945
sub@@ 7942
Am 7939
ents 7926
darling 7924
ang@@ 7906
birthday 7904
deserves 7902
ff 7900
ce@@ 7899
raise 7897
suddenly 7894
Colin 7893
poor 7880
lab 7877
plays 7877
ters 7877
record 7876
Besides 7875
ringing 7875
loving 7874
TO@@ 7862
Absolutely 7855
Stacy 7840
difference 7839
human 7836
trial 7834
gre@@ 7832
class 7818
reading 7816
regret 7801
driving 7798
Carlos 7792
seemed 7792
ture 7787
00 7787
Un@@ 7786
sin@@ 7782
vo@@ 7776
jealous 7772
Bu@@ 7766
Remy 7764
letter 7762
convinced 7761
lock 7760
paid 7757
Britt 7756
ching 7754
4@@ 7752
steps 7746
park 7738
pulled 7737
Exactly 7731
Barney 7717
sting 7708
These 7700
report 7682
rec@@ 7678
cur@@ 7673
likes 7670
Har@@ 7669
dying 7668
awful 7660
and@@ 7653
ag@@ 7645
tly 7645
ruin 7642
evil 7642
opportunity 7632
George 7632
Deimos 7624
ther@@ 7621
bought 7619
Jana 7615
honestly 7611
ies 7610
Stay 7587
Every 7580
ative 7573
drug 7572
rac@@ 7567
learned 7566
ban@@ 7563
video 7558
Layla 7554
mp 7548
Think 7545
moves 7539
Looks 7507
ved 7506
hu@@ 7503
space 7498
Sa@@ 7492
$ 7490
EN 7486
attack 7480
shi@@ 7477
movie 7472
brain 7470
destroy 7464
drugs 7464
DO@@ 7458
neither 7458
ridiculous 7454
cho@@ 7448
ish 7436
bur@@ 7436
Di 7435
ing@@ 7432
gosh 7425
bottle 7414
MA@@ 7412
ery 7402
ines 7396
la 7396
DiMera 7389
bringing 7388
I-- 7384
dressed 7381
Opal 7380
easier 7379
cute 7376
ob@@ 7365
CA@@ 7357
file 7353
Yep 7353
AL@@ 7351
picks 7348
fied 7348
AJ 7348
country 7343
9 7339
Two 7333
street 7322
ying 7317
others 7293
relax 7290
yer 7287
confused 7286
dog 7286
stri@@ 7284
sooner 7283
fit 7278
El@@ 7275
Booth 7275
ste@@ 7274
sur@@ 7273
cal@@ 7269
kissing 7259
Sweetheart 7257
cares 7251
ep@@ 7244
boo@@ 7238
ali@@ 7237
pretend 7229
den 7228
Miss 7227
mer@@ 7226
fu@@ 7226
buddy 7222
Brittany 7195
service 7183
bedroom 7179
Bo@@ 7178
reasons 7163
pictures 7159
yesterday 7159
carrying 7148
Ho@@ 7144
'em 7141
public 7140
search 7116
suppose 7114
hurting 7113
Blake 7112
Karen 7104
ill 7101
held 7097
stairs 7095
Anyway 7094
somehow 7092
Shh 7084
attorney 7080
grab 7079
Warrick 7078
Keep 7071
Remember 7068
TV 7048
quick 7044
nervous 7026
McBain 7016
complicated 7012
pressure 7011
ears 7011
Call 7009
Make 7005
Wallace 7004
Sounds 7002
Help 6984
P 6981
va@@ 6980
ness 6979
kes 6976
ten 6975
victim 6971
Riley 6963
Sniffles 6963
wanting 6961
city 6961
5@@ 6959
stole 6958
whi@@ 6954
Ricky 6951
Sometimes 6946
tting 6945
gro@@ 6939
dreams 6933
bother 6930
People 6928
Should 6912
sli@@ 6908
state 6907
ina 6904
Ashlee 6902
choose 6898
nurse 6897
Eden 6892
checked 6887
white 6885
Margaret 6883
ON 6875
ping 6875
ack 6874
experience 6872
interesting 6871
arrives 6869
Brennan 6869
Klaus 6855
Manning 6851
Helena 6847
Jeff 6845
DA@@ 6840
EMILY 6837
drunk 6832
sk@@ 6832
pl@@ 6827
LI@@ 6813
lin 6809
witness 6800
CUT 6796
ING 6791
write 6790
ct 6788
ered 6780
sweetie 6775
Richard 6759
Raylan 6745
Once 6740
dropped 6738
Tyler 6735
Ha@@ 6733
Crane 6733
Mon@@ 6728
Sp@@ 6728
system 6727
ned 6726
da 6723
nods 6714
Since 6709
condition 6709
lu@@ 6707
tape 6706
roo@@ 6699
NIGHT 6699
Lani 6699
spending 6689
reach 6685
fired 6679
Brass 6671
Asa 6666
picked 6661
Back 6660
tal 6659
gri@@ 6652
York 6647
sh 6640
falls 6637
ati@@ 6636
strange 6632
comp@@ 6632
.. 6631
ick 6629
capable 6628
lovely 6625
ched 6622
OK 6618
cap@@ 6615
Cara 6614
waste 6613
asleep 6595
pan@@ 6593
Lola 6592
der@@ 6588
Pro@@ 6587
breakfast 6578
ited 6577
SON 6575
breath 6572
romantic 6572
RA@@ 6571
six 6566
fool 6565
secrets 6563
contact 6561
knock 6560
Uncle 6556
Before 6554
& 6554
orders 6550
6 6547
7 6546
stress 6541
Marcus 6538
♪ 6535
ick@@ 6534
Si@@ 6533
watches 6531
No@@ 6530
begins 6529
Charles 6529
magic 6525
conf@@ 6523
hes 6520
Marah 6520
Those 6516
cking 6514
AN 6510
Paris 6509
obvious 6506
cted 6504
ending 6500
sell 6487
wor@@ 6483
just-- 6482
plenty 6481
photo 6479
tor@@ 6475
Mommy 6474
Se@@ 6473
Everybody 6467
medical 6462
memories 6453
legal 6439
Trust 6431
note 6430
turning 6425
cla@@ 6405
Forget 6403
consider 6401
eating 6400
sal@@ 6400
Man@@ 6399
More 6398
uck 6398
Giles 6390
v 6387
Stitch 6386
tor 6384
brings 6383
Markko 6381
pe 6379
Reggie 6370
T.C. 6367
aware 6361
bro@@ 6354
fun@@ 6354
dealing 6351
fly 6347
interest 6340
doctors 6332
shower 6319
hired 6319
notice 6314
ire 6310
kin 6310
tic 6308
imp@@ 6307
clearly 6302
career 6300
empty 6299
DNA 6299
IAN 6293
gl@@ 6289
Massimo 6289
An 6283
TH@@ 6282
damage 6281
ped 6275
ash 6275
dea@@ 6270
ft 6267
store 6262
believed 6258
neck 6253
committed 6253
tter 6252
ss 6251
nu@@ 6250
shall 6249
Jo@@ 6239
couch 6236
places 6234
Zoe 6233
rough 6228
marrying 6228
talks 6222
An@@ 6222
screen 6220
kisses 6213
ig@@ 6211
partner 6206
during 6205
Say 6203
sla@@ 6202
back@@ 6200
connection 6199
tions 6192
treat 6191
Ra@@ 6187
church 6186
text 6184
deeply 6181
Somebody 6178
signed 6173
dare 6167
belong 6166
mansion 6164
Love 6160
changes 6159
# 6154
complete 6150
shooting 6150
appears 6150
lights 6145
jo@@ 6144
IL@@ 6138
soul 6137
Tina 6136
cts 6133
ide 6128
Curtis 6128
Still 6127
ear 6124
rules 6120
celebrate 6119
Corinthos 6114
planned 6111
SYDNEY 6098
match 6093
details 6090
dri@@ 6089
ently 6088
Unless 6087
hates 6087
begin 6078
speaking 6072
toward 6058
corner 6053
Kirsten 6047
comfortable 6041
mommy 6037
ld 6036
jack 6021
por@@ 6018
cash 6018
20 6018
advantage 6015
os 6014
hello 6013
barely 6010
Jabot 6009
ju@@ 6008
tch 6002
round 6001
credit 5999
liked 5996
Holly 5996
boat 5994
joke 5992
shoulder 5991
project 5984
shirt 5983
pack 5983
showing 5963
desperate 5959
impossible 5958
dec@@ 5956
blue 5954
DE@@ 5951
lar 5950
song 5947
suit 5946
Jan 5945
IN 5941
Shut 5940
concern 5940
def@@ 5937
rush 5936
kick 5933
steal 5931
summer 5931
suspect 5930
Paloma 5930
necessary 5922
usually 5902
sy 5897
jump 5892
Th@@ 5891
hug 5887
incredible 5886
bra@@ 5885
Agent 5880
Hu@@ 5879
client 5878
throws 5877
JAMIE 5872
grow 5866
je@@ 5861
falling 5860
flowers 5860
BROOKE 5859
slow 5856
Dar@@ 5853
per 5850
ale 5846
stood 5840
caused 5837
ai 5834
ort@@ 5806
8 5803
allow 5802
sw@@ 5799
pes 5790
Boyd 5789
invited 5786
hungry 5781
loss 5780
revenge 5779
sen@@ 5778
closed 5770
tests 5769
dating 5768
Sir 5767
positive 5766
est@@ 5765
ia 5761
ace 5758
GRISSOM 5754
truly 5751
pleasure 5749
happiness 5747
Put 5740
rel@@ 5739
Grace 5739
cry 5733
sudden 5732
Exhales 5732
ction 5729
ep 5728
dies 5728
Par@@ 5726
tic@@ 5726
goodness 5725
grandfather 5723
Richie 5723
ically 5722
following 5714
Were 5713
idiot 5712
assume 5708
% 5705
further 5702
pushed 5698
Aunt 5690
Jenny 5688
kidnapped 5688
uncle 5687
expecting 5683
laughing 5678
ite 5673
type 5672
anc@@ 5670
Connor 5669
cri@@ 5667
noticed 5666
bottom 5666
statement 5665
remind 5663
Jeremy 5662
Ohh 5661
kissed 5658
Jimmy 5657
4 5656
cake 5655
fill 5655
goodbye 5652
Bobbie 5646
Laughter 5645
can@@ 5634
La@@ 5630
bail 5626
off@@ 5619
war 5618
covered 5612
Bar@@ 5611
Charlotte 5607
André 5606
EL 5603
Miles 5603
ris@@ 5602
Spaulding 5602
Felix 5594
justice 5592
protecting 5592
Erin 5591
tea 5585
Doc 5584
bri@@ 5579
ad 5574
Dario 5570
clu@@ 5569
machine 5567
Cordy 5566
area 5564
tree 5558
hero 5555
iled 5555
Peyton 5554
perfectly 5551
mood 5550
Sheila 5550
Buchanan 5547
Hannah 5547
lat@@ 5545
threw 5542
pushing 5536
wine 5531
ES 5531
games 5529
passed 5528
ical 5526
bunch 5526
Lorelai 5526
D.A. 5521
While 5520
Happy 5520
escape 5519
anger 5518
ar 5514
ON@@ 5504
ed@@ 5495
Too 5492
att@@ 5492
Sha@@ 5490
chi@@ 5482
hurry 5481
Ch@@ 5480
whoever 5479
Dominic 5474
emergency 5469
Mr 5466
wed 5463
spe@@ 5459
group 5457
W 5454
Pete 5454
Chance 5445
hurts 5443
birth 5442
hall 5439
bea@@ 5439
stic 5439
Valentin 5433
quit 5432
chan@@ 5432
roll 5429
finger 5425
Obrecht 5424
En@@ 5423
ions 5415
college 5414
issue 5413
Col@@ 5410
Ugh 5410
Vincent 5408
ana 5403
extra 5400
Time 5399
LUCAS 5398
sn@@ 5392
loo@@ 5392
Mor@@ 5387
refuses 5387
staff 5385
coun@@ 5381
Eddie 5380
fresh 5378
DI@@ 5372
Ru@@ 5365
flight 5364
sto@@ 5362
investigation 5362
Cor@@ 5358
spoke 5358
Believe 5357
fla@@ 5351
stra@@ 5350
Angela 5349
IC@@ 5348
aside 5345
Has 5343
Mickey 5343
fear 5336
issues 5335
AL 5334
spot 5331
double 5323
stayed 5316
threat 5314
Rey 5313
LO@@ 5311
Regina 5309
JACK 5304
NATHAN 5303
Anne 5300
hea@@ 5296
immediately 5293
shocked 5289
HO@@ 5289
mail 5288
Per@@ 5286
pen@@ 5283
Lynn 5281
ma 5279
pat@@ 5278
Things 5276
HALEY 5275
Anita 5274
paying 5273
vows 5269
allowed 5267
rep@@ 5260
keys 5258
produc@@ 5258
enti@@ 5252
Brook 5252
inv@@ 5246
Randi 5245
Bri@@ 5244
threatened 5241
Laughing 5240
AT@@ 5239
view 5226
row 5224
Mc@@ 5222
you-- 5216
For@@ 5216
Ex@@ 5215
tes 5212
Darla 5210
Schuyler 5208
/@@ 5207
argue 5200
May 5199
brea@@ 5194
don@@ 5192
sion 5191
Leave 5181
ourselves 5174
MAR@@ 5169
son@@ 5166
offered 5165
Try 5163
bigger 5159
zing 5159
rock 5159
Tripp 5158
her@@ 5155
fake 5153
responsibility 5149
ns 5149
TARDIS 5148
Except 5146
Port 5146
mental 5144
inst@@ 5143
Especially 5140
Fusion 5140
thrilled 5134
grandmother 5134
ill@@ 5131
enter 5130
mis@@ 5127
iling 5123
Trevor 5122
hears 5117
sa 5110
ther 5106
warm 5103
bullet 5102
Seriously 5102
earth 5100
officer 5099
Dan 5096
UR@@ 5094
va 5090
apparently 5086
hand@@ 5084
opinion 5082
cup 5080
pool 5080
forced 5079
mes 5078
ust@@ 5076
G 5074
pur@@ 5073
realizes 5072
played 5072
decides 5071
selfish 5071
Com@@ 5070
liar 5069
IE 5068
cabin 5066
bill 5066
Ke@@ 5062
healthy 5060
Ta@@ 5059
Lord 5058
helps 5054
fo@@ 5048
ja@@ 5047
str@@ 5045
due 5036
throwing 5036
chest 5035
Congratulations 5031
mentioned 5028
foot 5026
explo@@ 5024
lived 5021
large 5018
Mama 5017
breathe 5013
determined 5012
 5012
wow 5010
30 5008
ene 5005
jerk 5004
vis@@ 5001
knife 4998
Baker 4998
CO@@ 4995
ruined 4991
cat@@ 4987
Groans 4986
eling 4983
ths 4982
ound 4980
champagne 4979
ry@@ 4979
Patty 4978
grown 4976
cou@@ 4971
babies 4969
decisions 4969
fashion 4967
lay 4966
zz@@ 4964
Clyde 4964
Gu@@ 4959
mus@@ 4959
sight 4959
Sookie 4958
messed 4957
6@@ 4956
hated 4954
twice 4953
9@@ 4950
dirty 4949
Ellie 4946
dic@@ 4940
Aly 4940
ious 4938
field 4937
including 4936
Detective 4933
doors 4931
tan@@ 4931
ics 4930
ez 4930
named 4928
gging 4926
Sean 4926
Fa@@ 4925
cting 4924
checking 4923
Sh@@ 4922
roof 4921
Ow 4917
fy 4912
bride 4912
cost 4910
nor@@ 4908
stu@@ 4907
ory 4906
emp@@ 4905
considering 4905
int@@ 4893
beeps 4892
Wal@@ 4891
ladies 4890
yed 4887
OR 4887
agrees 4887
ours 4885
disappointed 4885
seconds 4878
wood 4878
ty@@ 4876
fac@@ 4874
Jackson 4872
murdered 4869
ow 4867
Stephen 4866
OO@@ 4864
hy@@ 4863
followed 4861
cousin 4860
pregnancy 4855
inc@@ 4853
Ju@@ 4853
Stuart 4853
Ja@@ 4851
beer 4849
process 4847
tt 4846
wind 4846
ny 4844
duc@@ 4844
Diego 4842
Jess 4842
level 4838
mm@@ 4832
miracle 4831
opening 4825
appointment 4822
Tessa 4822
department 4821
Che@@ 4820
Carter 4820
han@@ 4820
breathing 4818
Esther 4818
Ne@@ 4815
flo@@ 4815
anna 4815
shock 4813
beyond 4807
Alcazar 4807
Last 4806
saving 4804
common 4804
believes 4804
Singer 4797
eventually 4793
guest 4790
screwed 4789
SE@@ 4789
Abbott 4788
won 4787
insane 4783
pt 4780
LOGAN 4779
star 4776
badly 4776
Grady 4776
sted 4772
Celeste 4770
sun@@ 4769
IT@@ 4769
TJ 4769
form 4765
chose 4765
Walker 4765
nowhere 4764
ils 4762
cre@@ 4753
spell 4753
win@@ 4749
Raj 4744
Trey 4742
month 4732
Next 4731
hits 4730
bb@@ 4726
carry 4723
Malcolm 4723
hun@@ 4713
men@@ 4713
perhaps 4712
Josslyn 4709
build 4704
gg@@ 4703
shoes 4703
Christine 4701
mission 4695
tal@@ 4690
art 4690
pills 4685
slowly 4682
besides 4681
affair 4680
ue 4676
stage 4675
schedule 4674
beach 4673
cul@@ 4672
page 4668
crea@@ 4665
X 4663
clo@@ 4657
above 4654
cream 4652
Gi@@ 4652
expected 4651
ously 4650
Tim 4643
MAN 4642
Vaughn 4641
wrote 4641
dar@@ 4640
guilt 4640
Audrey 4639
sle@@ 4633
oning 4633
super@@ 4632
coo@@ 4628
reminds 4628
wonders 4628
bathroom 4624
major 4620
Doris 4615
Nelle 4614
hoo@@ 4612
ise 4607
defense 4606
non 4604
hole 4600
Sloane 4598
bank 4593
cross 4593
ren@@ 4590
San@@ 4590
VI@@ 4587
Wor@@ 4586
Sit 4581
admits 4580
SH@@ 4578
100 4577
downstairs 4574
Pu@@ 4572
Epiphany 4567
harder 4564
None 4563
Zander 4559
rich 4558
biggest 4554
hallway 4552
race 4551
Guess 4545
writing 4543
bon@@ 4542
treated 4541
dro@@ 4540
promises 4540
tight 4538
TON 4535
follows 4533
edge 4533
7@@ 4531
drops 4528
Brandon 4528
driver 4526
Later 4523
headed 4523
co 4522
Boy 4522
trusted 4514
island 4513
Carmen 4512
Obviously 4509
ward 4509
mm 4506
warned 4505
demon 4504
val 4500
thoughts 4499
ony 4496
Elijah 4493
JO 4493
Talk 4492
indic@@ 4490
ass@@ 4486
guards 4485
Mark 4484
raised 4482
LE 4482
SOOKIE 4480
8@@ 4476
Steven 4475
Genevieve 4471
smiling 4470
oned 4468
leads 4468
witch 4465
hopes 4464
Probably 4463
sor@@ 4462
criminal 4454
freak 4452
foo@@ 4443
scre@@ 4442
cards 4440
Leslie 4438
Qu@@ 4437
Welcome 4433
ber@@ 4430
ron@@ 4430
treatment 4429
distance 4426
yl@@ 4425
ss@@ 4424
health 4424
drinks 4419
Doug 4417
dge 4417
sheridan 4413
prepared 4412
glo@@ 4411
afternoon 4408
crap 4404
y-- 4404
Destiny 4402
final 4401
pper 4391
destroyed 4391
warning 4389
Ronan 4389
vely 4388
sets 4387
restaurant 4386
char@@ 4386
ee 4380
Fe@@ 4379
survive 4378
shop 4376
therapy 4376
liz@@ 4374
awake 4370
Sofie 4370
lots 4369
breaks 4368
Zende 4367
Sofia 4364
Nope 4362
UN@@ 4360
precious 4360
total 4356
ideas 4353
woke 4352
Guard 4350
lips 4347
reality 4347
pun@@ 4345
themselves 4344
kinda 4344
hor@@ 4342
engaged 4341
ess@@ 4338
action 4336
bing 4335
price 4327
belongs 4325
attacked 4320
Sierra 4320
notices 4318
hire 4317
nor 4316
Manny 4316
pulling 4314
van@@ 4313
Izzie 4308
vision 4307
ell 4307
admitted 4302
scare 4301
shakes 4299
chances 4298
awesome 4297
head@@ 4296
books 4296
rescue 4295
lan@@ 4293
PEYTON 4293
End 4292
Meanwhile 4289
opened 4289
Music 4287
HODGINS 4287
Pe@@ 4284
Talia 4282
dancing 4281
growing 4280
wh@@ 4275
Wa@@ 4274
Apparently 4272
hers 4271
Pa@@ 4271
pushes 4263
V 4260
Harmony 4258
Vanessa 4257
gh 4256
Al 4255
Alright 4254
Wes 4254
usual 4252
Hol@@ 4246
zy 4245
trick 4243
comm@@ 4241
cared 4240
ess 4239
MCGEE 4236
account 4235
Ba@@ 4233
ske@@ 4233
returns 4230
BE@@ 4228
ble@@ 4221
ive 4221
Until 4217
crash 4214
research 4212
butt 4209
announ@@ 4209
subject 4208
ly@@ 4206
ken 4205
timing 4205
Neither 4203
Marco 4201
Oscar 4200
gged 4199
gas 4199
Reed 4194
run@@ 4193
Jj 4192
Another 4190
suspicious 4189
irs 4185
tea@@ 4184
ane 4182
City 4182
screw 4181
cks 4178
thers 4175
vers 4174
rious 4174
van 4172
Aah 4172
jacket 4170
energy 4169
ces 4168
grand@@ 4167
hook 4165
loud 4163
choices 4163
teach 4161
stronger 4160
ella 4159
con 4158
Allison 4156
reaches 4153
warn 4152
bomb 4150
sid@@ 4149
,000 4149
BRIGADIER 4149
behavior 4148
disappear 4148
coma 4148
cont@@ 4143
visits 4142
gn@@ 4142
threatening 4142
ven 4142
forgotten 4142
rat@@ 4138
Go@@ 4138
Brea@@ 4137
HOUSE 4135
temp@@ 4134
Wil@@ 4133
interview 4128
screams 4127
Joshua 4125
Ahem 4124
Pri@@ 4123
weapon 4122
ser@@ 4121
AC@@ 4121
clue 4119
ders 4119
Troy 4119
Da@@ 4115
toast 4115
CAM 4115
flashback 4113
staring 4112
radio 4112
sending 4111
deny 4111
ght@@ 4111
nose 4111
sti@@ 4105
honeymoon 4105
blew 4099
hardly 4098
Giggles 4096
wel@@ 4095
motion 4094
suggest 4093
Te@@ 4092
tain 4091
she@@ 4085
bars 4084
bus 4083
AD@@ 4083
hur@@ 4082
ever@@ 4082
itch 4082
uses 4080
nearly 4080
J.J. 4080
ook 4079
jury 4077
coat 4075
ir 4074
oun@@ 4074
exp@@ 4071
miserable 4071
pieces 4068
rin@@ 4065
setting 4065
grandson 4064
nightmare 4063
released 4063
ra 4059
Hal@@ 4056
mate 4056
Cheers 4056
Day 4054
third 4049
buying 4047
AMY 4046
comfort 4044
Flo 4043
several 4037
parent 4035
avoid 4035
Cristina 4033
Traci 4033
managed 4032
mama 4028
professional 4027
Gre@@ 4027
site 4025
Nancy 4024
wakes 4021
tied 4020
names 4019
fingers 4019
poli@@ 4017
Bailey 4015
bal@@ 4009
Doorbell 4003
Better 4002
rity 3997
monster 3997
understanding 3996
kidnapping 3994
ceremony 3994
Ga@@ 3993
harm 3990
pretending 3988
bas@@ 3987
RY 3987
changing 3985
cked 3983
wound 3983
ack@@ 3983
practically 3982
Miranda 3982
Danielle 3981
bastard 3981
funeral 3979
Valley 3979
nick 3978
Crying 3976
wea@@ 3975
Aw 3974
onal 3972
fre@@ 3967
settle 3961
gue 3960
KATE 3959
Perhaps 3958
e-- 3953
loose 3952
ANGELA 3952
Iris 3951
ne 3949
aunt 3945
Big 3944
within 3944
model 3944
OL@@ 3944
Pretty 3943
Although 3943
Lena 3943
OU@@ 3941
our@@ 3938
SS@@ 3937
shh 3937
Serena 3937
Want 3933
Bro@@ 3933
Gabriel 3933
access 3932
wan@@ 3931
burn 3930
smell 3927
patients 3926
offers 3924
defend 3923
whose 3917
lines 3917
elevator 3915
everywhere 3915
brilliant 3914
Fi@@ 3906
sters 3905
picking 3903
simply 3902
screaming 3901
ell@@ 3898
int 3897
Aubrey 3897
vit@@ 3895
din@@ 3894
victor 3891
gorgeous 3890
SA@@ 3890
LEY 3890
stares 3887
stan@@ 3886
nic@@ 3883
afford 3882
spo@@ 3881
tru@@ 3878
BUFFY 3877
stance 3875
shots 3875
storm 3874
tical 3873
chief 3873
leg@@ 3872
SARAH 3864
cancer 3862
argument 3862
engagement 3861
kers 3861
um@@ 3861
squ@@ 3860
strength 3858
pic@@ 3855
whenever 3852
del@@ 3851
KEITH 3851
des@@ 3848
vampire 3848
wishes 3847
_ 3844
planet 3843
wers 3839
practice 3838
BARBARA 3838
rie 3835
ENT 3833
Whip 3832
disappeared 3829
ref@@ 3825
Quartermaine 3825
ome@@ 3824
emotional 3821
JT 3817
records 3816
explains 3816
Fre@@ 3815
singing 3814
wal@@ 3813
bru@@ 3812
Hell 3811
drag 3806
tures 3805
remembered 3804
upon 3803
ple 3801
AND@@ 3801
Mi@@ 3798
thin@@ 3796
agent 3794
ghter 3793
--@@ 3789
thy 3789
taste 3788
acc@@ 3788
direction 3788
Llanview 3788
H 3787
bear 3787
waited 3785
generous 3784
Dayzee 3783
ement 3782
horse 3779
nuts 3775
Tara 3775
tran@@ 3771
ounding 3771
s*x 3770
airport 3769
pocket 3767
available 3766
recei@@ 3766
silly 3764
ashes 3761
stea@@ 3759
Voice 3759
CATHERINE 3758
sy@@ 3755
gen@@ 3755
green 3755
hol@@ 3751
stre@@ 3751
add 3748
connected 3746
TE@@ 3744
taught 3744
filled 3742
Cl@@ 3741
ort 3736
main 3736
US 3736
alright 3736
otherwise 3734
Cambias 3734
heavily 3732
d-- 3731
ought 3730
Cam@@ 3730
Pi@@ 3729
stor@@ 3729
failed 3729
dings 3726
solve 3726
que 3724
RICHARD 3724
Jamal 3723
purpose 3722
Win@@ 3720
stat@@ 3720
Caitlin 3720
new@@ 3715
phi@@ 3711
down@@ 3710
Three 3705
unconscious 3705
Hank 3705
truck 3702
Lady 3702
ately 3701
dre@@ 3700
15 3700
Sal@@ 3699
path 3699
ELL 3698
rights 3697
cher 3697
exc@@ 3697
leans 3696
tears 3692
Open 3692
interrupt 3691
sexy 3691
zes 3688
é 3688
style 3686
circumstances 3684
someplace 3684
detective 3683
ordered 3682
Ed 3681
betrayed 3680
success 3679
gay 3679
bite 3677
remembering 3676
stays 3675
often 3674
lab@@ 3673
ray 3672
star@@ 3672
closet 3671
We@@ 3670
pair 3667
rushes 3666
ber 3666
Mer@@ 3665
miles 3665
0 3663
ABBY 3663
Always 3663
fic@@ 3662
duty 3662
gener@@ 3660
sounded 3658
messages 3657
natural 3656
noise 3656
brothers 3653
IR@@ 3650
bla@@ 3649
heaven 3642
recognize 3641
hundred 3640
Nigel 3638
bor@@ 3634
shed 3632
gy 3628
Del@@ 3627
J 3624
uncomfortable 3621
cries 3618
stake 3618
terms 3615
ette 3613
familiar 3612
AM@@ 3612
EM@@ 3609
elled 3606
tty 3605
ability 3604
blo@@ 3602
invite 3601
Pine 3599
ssing 3597
ST 3597
Ad@@ 3597
release 3597
ired 3596
suffer 3596
stories 3596
Grandma 3590
s-- 3589
Lois 3588
ided 3585
vy 3585
monitor 3583
thrown 3583
fil@@ 3582
Ed@@ 3582
ean 3582
possibility 3582
heart@@ 3580
dude 3579
Murphy 3578
Charity 3576
enemy 3575
friendship 3575
cr@@ 3574
yers 3574
arrived 3573
skin 3571
official 3570
worrying 3570
Darryl 3568
thu@@ 3566
trav@@ 3563
address 3559
Je@@ 3559
Zack 3558
impressed 3556
facts 3554
Or@@ 3552
ast 3551
session 3545
ade 3544
Bra@@ 3544
photos 3543
sisters 3542
Rebekah 3541
ici@@ 3535
exam@@ 3535
Reid 3535
GI@@ 3532
Grunts 3532
speci@@ 3531
FBI 3528
ach 3527
Chicago 3526
hel@@ 3526
Zacchara 3525
Lewis 3524
Brot 3524
draw 3522
someday 3522
develo@@ 3522
clock 3522
ele@@ 3515
center 3513
band 3512
ik@@ 3512
catches 3507
ppy 3507
became 3506
Jan@@ 3506
grief 3505
Cha@@ 3504
Wesley 3502
explanation 3500
plate 3498
mo 3489
tation 3489
mayor 3487
Darling 3486
Lillian 3486
confession 3483
fri@@ 3481
itting 3481
leg 3477
slip 3477
LANE 3477
moments 3475
grave 3472
Cutter 3472
exact 3471
However 3470
easily 3470
arrive 3467
gly 3465
powerful 3465
reaction 3464
actions 3464
rist@@ 3463
ong 3463
Mayor 3463
ening 3460
hing 3460
tom@@ 3458
Delia 3456
cru@@ 3455
ye 3454
curious 3454
recently 3452
Pre@@ 3450
meets 3449
19@@ 3449
covering 3448
MI@@ 3446
lin@@ 3444
pal 3442
bone 3441
Over 3439
shake 3437
kills 3436
acqu@@ 3435
Speaking 3435
DALEK 3435
wide 3434
bit@@ 3434
sno@@ 3434
agreement 3433
assi@@ 3432
prof@@ 3430
sky 3427
families 3427
Douglas 3427
Vegas 3426
accepted 3425
ist 3424
glasses 3422
Ste@@ 3422
older 3422
rily 3418
Coleman 3418
ced 3417
lonely 3417
kicked 3416
mer 3415
cer@@ 3414
ethan 3412
scary 3410
purse 3409
weak 3409
serve 3406
O'@@ 3406
sol@@ 3403
SP@@ 3400
testify 3399
photogra@@ 3397
SU@@ 3397
numbers 3396
nicole 3396
stable 3395
BA@@ 3395
Lor@@ 3395
fli@@ 3392
Out 3391
Year 3391
nie 3389
50 3388
Star@@ 3388
pray 3387
remembers 3386
Hayward 3386
watched 3385
fan 3384
Siobhan 3384
inf@@ 3383
checks 3381
ond 3380
commitment 3379
Perfect 3379
trash 3376
supp@@ 3375
Lisbon 3374
although 3373
counter 3369
trans@@ 3369
rick 3369
Isabel 3365
hat@@ 3363
dd@@ 3360
Hector 3360
fire@@ 3359
ugly 3359
ek 3357
ridge 3357
Captain 3357
Clara 3357
pla@@ 3352
john 3352
bright 3350
illa 3349
chase 3347
Tommy 3345
crowd 3344
wild 3343
Girl 3343
tered 3342
attitude 3341
guarantee 3340
knocked 3338
CAR@@ 3338
step@@ 3338
hangs 3336
meantime 3336
fantastic 3335
conference 3334
sses 3334
pra@@ 3333
Hook 3333
mps 3332
Na@@ 3331
Mrs 3330
U 3329
psycho@@ 3329
ben 3329
personally 3328
worries 3328
theresa 3328
understands 3325
gar@@ 3325
Tico 3325
gasps 3324
settled 3321
decent 3321
tro@@ 3320
bell 3320
Bl@@ 3319
claim 3319
furious 3318
wise 3316
medication 3314
ingly 3314
relieved 3313
ure 3312
ctive 3311
ried 3310
ho 3309
recovery 3307
mping 3305
handsome 3304
cli@@ 3304
stranger 3304
Shaun 3304
Tek 3300
angel 3299
vir@@ 3297
So@@ 3296
flying 3295
SE 3295
reminded 3292
Whoo 3290
basically 3287
Carlotta 3284
arguing 3283
Nicholas 3283
mod@@ 3280
acted 3279
benefit 3277
luis 3277
trapped 3275
files 3273
apology 3273
naked 3272
joins 3269
cro@@ 3269
Sheriff 3269
lon@@ 3268
Jerome 3268
encoura@@ 3265
Larry 3265
ind@@ 3260
woods 3259
ignore 3259
pay@@ 3257
lar@@ 3256
earing 3256
stomach 3255
lity 3255
Tomás 3255
lesson 3254
brave 3254
reads 3253
murderer 3251
spirit 3250
Gold 3250
shame 3249
heading 3243
sons 3243
val@@ 3239
ashed 3239
pants 3236
code 3235
maid 3233
VAUGHN 3232
option 3232
manage 3231
accused 3231
L.A. 3230
fought 3230
answering 3228
train 3222
Metro 3222
Sweetie 3221
Watch 3220
air@@ 3219
tex@@ 3218
brady 3216
opposite 3215
assistant 3215
ink 3213
Dramatic 3213
flash 3212
PARIS 3210
joy 3206
Cooper 3203
plan@@ 3202
dry 3202
written 3201
cy 3200
slams 3199
solution 3199
freaked 3199
Livvie 3199
HA@@ 3194
speech 3194
campaign 3194
Evan 3193
wer 3191
cti@@ 3191
Ray 3190
faces 3190
mber 3189
ood 3187
battle 3187
Honestly 3183
knocks 3182
sel@@ 3182
sty 3181
prosecu@@ 3181
approaches 3180
Br@@ 3177
likely 3177
IS 3177
uck@@ 3176
magazine 3176
san@@ 3176
elling 3175
Snyder 3175
shopping 3174
Thanksgiving 3174
physical 3174
grandma 3174
blind 3173
iding 3171
mic@@ 3169
anti@@ 3167
Asher 3164
happily 3162
disaster 3161
Hunter 3161
happier 3160
progress 3159
X@@ 3158
lip 3157
charity 3154
Hea@@ 3152
built 3151
don't 3150
mirror 3148
SARA 3148
searching 3144
eal 3143
Unfortunately 3143
B.@@ 3143
tured 3141
Bette 3141
oper@@ 3140
dist@@ 3140
bus@@ 3140
� 3139
mystery 3137
TH 3135
warehouse 3134
dropping 3133
Emmett 3133
Guys 3132
Check 3130
ably 3130
chocolate 3128
load 3127
Christina 3127
wasting 3123
safety 3121
itself 3117
tech@@ 3112
tear 3112
Luca 3111
Gaius 3111
Ahh 3109
Burke 3108
Enough 3107
bul@@ 3106
smoke 3106
property 3106
ph 3103
begging 3101
12 3101
ough 3100
Hang 3099
Au@@ 3097
exchange 3097
iting 3097
break@@ 3097
judgment 3097
ily 3096
raises 3095
pathetic 3095
ZIVA 3094
grew 3092
Chief 3092
CSI 3091
F 3090
Cu@@ 3090
claims 3088
Son 3088
ition 3087
poison 3087
sive 3085
stolen 3084
ners 3084
crac@@ 3083
ctions 3083
Hughes 3082
sold 3079
loyal 3075
paternity 3075
handled 3073
Gra@@ 3072
ton@@ 3071
aliz@@ 3071
becomes 3070
beside 3069
pea@@ 3069
Lydia 3069
excellent 3068
sel 3067
intend 3067
stran@@ 3065
deserved 3064
anytime 3063
bond 3063
believing 3062
shift 3061
pr@@ 3061
eng@@ 3061
yelling 3059
ounded 3059
rol@@ 3058
GE@@ 3058
ssed 3057
contract 3055
Gri@@ 3054
She@@ 3053
bed@@ 3053
TI@@ 3052
fish 3052
ur 3051
protection 3051
hat 3051
boun@@ 3050
respe@@ 3047
background 3046
understood 3044
necklace 3042
procedure 3040
crossed 3039
ney 3038
permission 3037
beeping 3037
ational 3036
split 3034
ids 3033
manipul@@ 3033
Cordelia 3032
ena 3030
ei@@ 3030
defending 3030
event 3029
Queen 3029
Stiles 3029
wis@@ 3028
notes 3026
King 3026
shared 3023
Turns 3022
ham 3021
Andie 3021
buried 3020
crew 3019
iness 3019
insists 3019
stone 3019
ai@@ 3015
onally 3015
Dean 3015
cing 3014
frame 3012
license 3012
mon 3010
shu@@ 3009
10@@ 3008
OF 3006
et@@ 3006
JA@@ 3006
mean@@ 3005
Pat@@ 3005
ian 3004
Nadine 3003
vel 3002
options 3002
ston 3000
Tate 3000
ghing 2999
weekend 2999
Milo 2997
LY 2996
ups 2995
tab@@ 2994
drove 2993
signs 2992
vic@@ 2989
reci@@ 2987
SCENE 2987
stopping 2985
Today 2985
powers 2984
Ready 2983
Raul 2981
cky 2980
dep@@ 2980
iler 2977
lim@@ 2976
tho@@ 2976
ville 2975
Des@@ 2971
Ser@@ 2971
grand 2970
experi@@ 2969
some@@ 2969
exciting 2968
chat 2968
Quick 2968
copy 2967
tur@@ 2967
drama 2966
adoption 2966
stealing 2964
xing 2963
ster@@ 2957
study 2956
allo@@ 2955
confess 2954
HAR@@ 2953
basement 2952
jet 2952
lifetime 2952
Tonight 2951
sonny 2951
acy 2950
rooms 2950
that-- 2949
member 2947
STEVEN 2945
vote 2944
bel@@ 2943
bleeding 2943
unk 2943
paperwork 2943
emb@@ 2942
pop 2942
Toby 2942
ambulance 2941
mea@@ 2941
theory 2941
hitting 2941
I'll 2941
Peter 2940
Celia 2940
sey 2938
warrant 2937
.... 2937
survived 2936
image 2936
offering 2936
lo 2934
bags 2933
tiny 2933
attempt 2930
master 2930
Clarke 2930
alarm 2929
scra@@ 2926
Sasha 2926
clinic 2925
consequences 2925
MASTER 2925
DA 2924
Gl@@ 2923
conta@@ 2922
Ka@@ 2922
tage 2921
awkward 2919
dumped 2919
Court 2919
hung 2917
speed 2917
whe@@ 2917
rule 2916
Cool 2916
teen 2914
blaming 2914
ishing 2913
thousand 2912
remain 2911
Kiriakis 2909
hugs 2908
selling 2908
treating 2905
ki 2904
painful 2903
GE 2903
KE 2902
Relax 2901
Guy 2901
niece 2901
program 2899
compe@@ 2898
surprises 2897
appreci@@ 2896
Allie 2895
prefer 2893
fying 2892
sensitive 2892
humili@@ 2891
fate 2891
cour@@ 2890
ination 2887
Cla@@ 2887
gradu@@ 2885
refuse 2882
zzy 2882
react 2881
tit@@ 2879
ut 2876
ats 2876
questioning 2876
Dea@@ 2875
reli@@ 2875
officially 2873
Black 2872
dest 2872
Cassadine 2871
facing 2870
peri@@ 2870
Dude 2868
trac@@ 2867
ac 2867
Ev@@ 2866
af@@ 2864
social 2863
granddaughter 2863
shares 2861
legs 2860
manager 2859
Renee 2859
boring 2858
ures 2857
Sobbing 2857
Finally 2855
ct@@ 2855
ences 2853
MM@@ 2853
jumps 2851
loser 2851
Sar@@ 2851
Must 2848
consid@@ 2846
beg 2846
ga 2845
Ever 2844
counting 2844
raising 2843
Mal@@ 2843
burning 2843
suffering 2842
lift 2841
cat 2840
Ter@@ 2839
interrupting 2836
t-- 2834
Otherwise 2834
NICK 2831
ticket 2829
becoming 2829
shape 2828
TER@@ 2828
imm@@ 2827
lers 2827
commit 2827
eric 2827
Justus 2827
unfortunately 2825
Poor 2825
ctor 2823
did@@ 2822
mark 2822
tz 2820
execu@@ 2819
Siren 2819
di 2818
heavy 2818
kid@@ 2818
amount 2817
Find 2817
excuses 2816
feed 2815
fore@@ 2815
qui@@ 2815
seven 2814
dollars 2814
Being 2814
addic@@ 2814
enjoying 2814
dr 2814
latest 2813
rain 2813
Hattie 2813
speaks 2809
fol@@ 2808
Ti@@ 2806
river 2803
S. 2801
equ@@ 2801
sun 2801
tar@@ 2801
mel@@ 2801
explained 2799
dig 2799
div@@ 2798
sharply 2797
refused 2796
PAR@@ 2796
designs 2795
Again 2794
post 2792
enter@@ 2792
Andre 2792
Bea@@ 2791
and-- 2790
ger@@ 2789
chad 2789
secre@@ 2788
ghts 2788
bound 2787
SS 2786
freedom 2786
stro@@ 2783
target 2782
loyalty 2782
parking 2782
tta 2782
ori@@ 2781
punch 2779
Sebastian 2779
gentlemen 2778
market 2778
exist 2778
extremely 2778
bat@@ 2776
ires 2775
blu@@ 2773
article 2773
version 2771
despite 2771
Coming 2769
crisis 2769
backs 2768
EV@@ 2768
Life 2768
cook 2767
correct 2766
Ben@@ 2766
ranch 2765
London 2765
GWEN 2765
tail 2764
DAN 2764
Gunn 2764
Either 2763
Most 2763
remains 2762
Cal@@ 2762
privacy 2760
scream 2760
Baldwin 2760
fra@@ 2758
Chase 2758
charged 2757
BO@@ 2756
ano 2755
protective 2754
commissioner 2754
Madeline 2754
Lavery 2754
eight 2753
distracted 2753
original 2753
cheating 2752
dirt 2752
Echo 2752
sue 2751
distur@@ 2751
bbing 2749
however 2748
any@@ 2748
pleased 2748
plea@@ 2747
cand@@ 2746
Kar@@ 2746
inten@@ 2745
24 2745
confronts 2744
regi@@ 2743
dom 2742
freaking 2741
20@@ 2740
hostage 2740
genius 2739
yard 2738
online 2736
bothering 2736
den@@ 2736
trou@@ 2732
LES 2729
garage 2729
French 2727
overheard 2727
demands 2727
button 2725
suggests 2723
Ronnie 2723
kins 2722
rish 2721
touched 2720
based 2719
wherever 2719
friendly 2717
Oakdale 2717
switch 2716
ight 2716
Kind 2715
passion 2711
assures 2709
gic 2708
hopefully 2708
Clay 2708
successful 2707
Sho@@ 2706
St. 2706
fe 2705
gun@@ 2704
rial 2704
color 2703
sea@@ 2702
rev@@ 2702
donor 2702
confidence 2701
lic 2701
mul@@ 2699
Fo@@ 2699
terrified 2698
sit@@ 2698
meal 2697
QU@@ 2697
tics 2695
whom 2692
C.E.O. 2692
Without 2691
burned 2690
uce 2690
coincidence 2690
(@@ 2690
ssi@@ 2689
groans 2689
enny 2688
cheated 2688
Dina 2688
nine 2685
communic@@ 2685
proposal 2685
incredibly 2683
cast 2682
Ace 2682
proce@@ 2681
INE 2680
ghten 2679
dump 2679
Cassandra 2677
wn@@ 2676
gger 2676
panic 2674
GH 2674
Ask 2674
ric 2673
Same 2673
Santa 2673
Sobs 2672
pizza 2671
knowledge 2671
Han@@ 2671
Rolf 2671
beating 2670
presents 2669
oc@@ 2668
depends 2668
vulnerable 2667
base 2666
stock 2663
rude 2661
Du@@ 2661
Bess 2661
spare 2660
viol@@ 2660
lun@@ 2658
hypo@@ 2656
heal 2655
Dawn 2655
trap 2654
pho@@ 2654
medicine 2654
Russell 2653
Storm 2652
congratulations 2651
Lou@@ 2651
cure 2651
heat 2650
sticking 2650
TA@@ 2649
White 2648
gain 2647
Evans 2647
Kane 2646
explosion 2645
abandoned 2644
reas@@ 2644
role 2644
wit@@ 2642
dian 2641
LU@@ 2641
deli@@ 2641
tip 2640
Mis@@ 2640
Rea@@ 2639
intern@@ 2639
print 2638
Robbins 2638
William 2637
Enterprises 2636
Franc@@ 2635
EY 2635
rage 2635
Under@@ 2634
term 2634
biological 2634
usion 2634
silent 2634
Easy 2633
Shauna 2632
ma'am 2630
Mil@@ 2630
persu@@ 2630
Rusty 2630
Marcel 2630
obje@@ 2628
sucks 2627
intention 2627
fits 2627
square 2626
reveals 2625
itz@@ 2625
greatest 2625
Macy 2625
jumped 2623
fortune 2622
caring 2622
Palmer 2622
lis@@ 2621
Amelia 2620
ashamed 2618
dering 2616
Second 2616
my@@ 2615
mob 2615
acts 2614
walls 2614
TS 2614
I.@@ 2613
ants 2612
[@@ 2612
passes 2610
pal@@ 2610
swa@@ 2607
rat 2607
teeth 2606
ere 2606
sett@@ 2606
block 2604
Sc@@ 2604
Sy@@ 2601
PE@@ 2601
nam@@ 2600
operation 2599
deliver 2599
Fri@@ 2599
liam 2599
AT 2598
rise 2598
influence 2598
ara 2597
assure 2596
adult 2596
Travis 2596
Genoa 2596
mbles 2594
weight 2594
according 2593
SH 2593
sword 2588
un 2588
tin@@ 2587
dev@@ 2587
em 2587
hesit@@ 2585
ooh 2584
sacrifice 2584
nee@@ 2583
listened 2583
Tra@@ 2579
particular 2578
community 2578
gan 2576
separate 2576
challenge 2575
Stu@@ 2575
Honor 2575
comfor@@ 2575
identi@@ 2574
devastated 2573
literally 2573
GU@@ 2571
Sta@@ 2571
celebrating 2571
answered 2571
Montgomery 2570
created 2569
handed 2567
sentence 2566
ME@@ 2565
stal@@ 2564
dragged 2563
mped 2562
motive 2562
Hospital 2560
cruel 2560
eping 2559
student 2558
fel@@ 2558
beth 2558
Marisa 2558
gold 2557
j 2557
Andrew 2557
Fenmore 2557
worthy 2556
guests 2554
Merry 2554
ys@@ 2554
pen 2551
Plus 2551
embarrassed 2550
hidden 2549
compla@@ 2549
ILL@@ 2549
ints 2548
rela@@ 2546
sharing 2545
blackmail 2545
teen@@ 2544
ency 2543
focused 2543
quali@@ 2542
associ@@ 2541
reputation 2541
Eduardo 2536
pie 2536
Hugh 2536
Rafael 2536
Cre@@ 2534
ises 2534
Jo 2534
assuming 2532
mist@@ 2532
Mic@@ 2530
Ramsey 2530
false 2529
mmy 2529
cases 2527
TER 2527
E.@@ 2525
Jr. 2525
requ@@ 2524
assumed 2524
Can@@ 2524
affe@@ 2524
Outside 2523
part@@ 2523
nights 2523
tun@@ 2522
bun@@ 2521
Jackal 2520
mb 2519
Ban@@ 2515
jour@@ 2514
hal@@ 2513
phones 2512
Suddenly 2512
ffs 2512
leading 2512
Fred 2512
meaning 2511
solved 2511
concentrate 2511
dumb 2511
Club 2510
cus@@ 2509
nasty 2509
bridge 2508
survi@@ 2508
armed 2507
served 2506
solid 2506
Ly@@ 2504
mble 2503
pac@@ 2502
Endora 2502
Breathing 2499
Davis 2499
Cramer 2499
guns 2498
mmer 2498
nephew 2498
reasonable 2498
cutting 2497
PHONE 2496
sneak 2496
ells 2496
MOR@@ 2496
SI@@ 2494
Slater 2494
approach 2492
locker 2492
Soft 2492
tted 2491
grabbed 2490
tickets 2489
A.@@ 2489
Earth 2488
enemies 2487
mming 2487
competition 2487
bles 2486
RACHEL 2485
confessed 2484
bucks 2482
character 2482
ti 2480
scar@@ 2479
threaten 2479
Whe@@ 2479
cleared 2478
tense 2476
spar@@ 2475
super 2473
bow 2472
nature 2472
doubts 2472
handling 2471
thomas 2471
create 2469
iner 2469
Jen@@ 2469
misses 2469
garbage 2468
conv@@ 2467
thro@@ 2466
ier 2465
illegal 2464
example 2464
prom 2464
Bernadette 2463
Stone 2462
camp 2461
farm 2461
ARD 2460
inspir@@ 2460
causing 2460
diner 2460
grandpa 2460
kind@@ 2458
Camera 2458
decor@@ 2457
packing 2456
potential 2455
Ab@@ 2454
guessing 2453
odds 2453
Police 2453
ease 2451
ern@@ 2450
sl@@ 2449
quietly 2447
tically 2444
Gibbs 2444
size 2442
related 2442
Promise 2442
Coun@@ 2441
res 2440
wondered 2440
pub 2439
gin@@ 2438
exits 2438
laid 2438
Drake 2437
mal@@ 2434
hed 2433
guar@@ 2433
Valentine 2433
wling 2431
sides 2431
effort 2429
.C. 2427
appear 2425
Bad 2424
arre@@ 2424
twisted 2423
estate 2423
drives 2422
consul@@ 2421
reveal 2420
Hayley 2419
infor@@ 2418
fat 2418
gru@@ 2418
with@@ 2417
confident 2417
see@@ 2415
suspic@@ 2414
obse@@ 2414
reached 2414
uni@@ 2411
warns 2411
Kit 2410
tin 2409
impro@@ 2408
BR@@ 2408
priority 2406
drugged 2406
Lee 2406
nap 2405
blows 2404
lif@@ 2403
NE@@ 2403
ric@@ 2403
SUSAN 2402
BER@@ 2401
hh 2400
fixed 2400
tary 2399
pot 2399
chasing 2399
Don@@ 2398
famous 2398
dreaming 2396
tre@@ 2394
trigger 2394
Ge@@ 2393
covers 2392
christ@@ 2392
Old 2391
thir@@ 2390
queen 2389
Ewen 2388
sis 2387
Fran@@ 2386
labor 2386
icked 2385
Ger@@ 2384
vin 2384
len 2384
Grandpa 2384
ll@@ 2383
War@@ 2383
Dana 2382
ford 2381
fus@@ 2381
atic 2379
tele@@ 2379
home@@ 2379
igno@@ 2379
newspaper 2378
movies 2376
offense 2376
fantasy 2375
rent 2374
Debbie 2374
Dev@@ 2373
travel 2371
tory 2371
spon@@ 2371
bloo@@ 2371
thor@@ 2371
rian 2370
cars 2370
wri@@ 2369
ot 2368
ash@@ 2366
Nah 2365
local 2364
relief 2363
ro 2363
Horton 2363
fif@@ 2362
entirely 2362
wrapped 2361
sat 2361
SWEETS 2359
ite@@ 2357
cop@@ 2356
stars 2356
lord 2355
gym 2355
org@@ 2353
OOV 2353
ages 2351
Cop 2351
cleaning 2350
volunte@@ 2349
visiting 2348
hoped 2347
strai@@ 2347
fancy 2347
Dis@@ 2346
Instead 2345
impression 2344
lau@@ 2343
obsessed 2343
contrac@@ 2343
DEAN 2343
tour 2341
guts 2340
teacher 2339
neu@@ 2339
forgiveness 2339
moon 2338
intel@@ 2337
human@@ 2336
nail 2336
wreck 2335
Goodbye 2335
passing 2334
ord@@ 2333
bust 2333
shel@@ 2331
exhausted 2329
returned 2328
terrific 2328
laying 2327
enc@@ 2327
male 2327
cen@@ 2326
ani@@ 2326
rolls 2326
tongue 2326
grea@@ 2326
painting 2324
rip 2324
MON@@ 2324
considered 2323
entering 2322
adam 2322
pressed 2321
invitation 2321
ality 2321
mous 2321
ghty 2321
affect 2321
ld@@ 2321
differently 2321
listens 2320
deser@@ 2319
anxious 2319
location 2318
paint 2318
effect 2318
CON@@ 2318
Gina 2318
planted 2317
dle 2316
fer 2316
ela 2316
Snow 2316
alcohol 2314
accusing 2314
stepped 2313
Stan 2313
Show 2312
player 2311
Alaric 2308
He@@ 2306
messing 2306
rup@@ 2305
jud@@ 2305
beauty 2305
IA 2304
pas@@ 2304
Chi@@ 2303
eps 2303
Diana 2303
fle@@ 2301
contro@@ 2301
loc@@ 2299
chicken 2299
request 2299
olo@@ 2298
B. 2298
stubborn 2298
smi@@ 2297
footage 2297
sca@@ 2295
flir@@ 2294
protected 2294
WARRICK 2294
App@@ 2293
Faison 2293
adv@@ 2292
Ac@@ 2292
invest@@ 2292
nerve 2292
HE@@ 2291
former 2290
World 2290
devil 2289
ished 2288
prisoner 2288
ext@@ 2287
sely 2287
climb@@ 2286
informs 2286
Dixon 2282
goo@@ 2282
prepare 2281
Chuckling 2281
fallen 2280
to-- 2279
pass@@ 2278
Wh@@ 2278
kicks 2276
babe 2276
Cou@@ 2275
temporary 2275
sometime 2275
JO@@ 2273
House 2272
work@@ 2271
V.O. 2270
spring 2270
fabulous 2269
DUCKY 2269
bel 2268
bloody 2266
doub@@ 2265
investig@@ 2264
library 2262
unt 2262
Flash 2262
Hodgins 2262
bury 2261
ner@@ 2261
ria 2260
gus 2259
Att@@ 2258
gle 2258
recording 2258
regular 2257
complic@@ 2256
spoken 2255
cookies 2254
tle 2253
jumping 2253
jection 2253
COR@@ 2253
fro@@ 2252
Ty@@ 2252
conscience 2252
Black@@ 2251
Long 2249
lake 2249
prepar@@ 2248
prints 2247
NA 2247
Ki@@ 2247
ROSE 2247
gwen 2247
source 2246
tou@@ 2246
Gro@@ 2246
interrupted 2246
kie 2245
comb@@ 2245
reception 2245
insisted 2245
derson 2245
map 2244
.A. 2242
chuckle 2242
fran@@ 2242
device 2241
vacation 2241
inheri@@ 2241
odd 2241
Spinner 2241
OP@@ 2240
underneath 2240
shing 2240
lou@@ 2239
proves 2239
supportive 2239
hood 2238
negative 2236
internet 2233
nn 2233
exi@@ 2232
imag@@ 2232
direc@@ 2232
recomm@@ 2232
bud@@ 2232
waves 2231
suite 2231
house@@ 2231
kinds 2230
suffered 2230
smar@@ 2229
rely 2229
NE 2227
DY 2226
dimera 2226
comple@@ 2224
fiancé 2224
intense 2224
letters 2223
accent 2223
dru@@ 2222
courtroom 2222
Teri 2222
fund 2221
pity 2220
Bal@@ 2217
skills 2216
Morgana 2216
Maxine 2215
Europe 2213
ashing 2213
Lainey 2213
ide@@ 2212
threats 2212
wheel 2212
Webber 2212
fail 2210
oo 2209
Dan@@ 2208
presence 2208
unbelievable 2208
cuts 2207
continued 2207
chil@@ 2206
Seems 2206
Nor@@ 2206
owner 2205
knocking 2204
R. 2204
aning 2203
tent 2203
Det 2203
sugar 2202
Young 2202
flat 2201
plu@@ 2200
conne@@ 2200
Definitely 2199
artist 2198
11 2198
Inside 2197
sen 2197
talent 2197
delivered 2196
hearts 2196
Tor@@ 2195
STEWART 2195
placed 2194
ey@@ 2192
Sun@@ 2192
Excellent 2192
Mick 2192
bor 2191
package 2191
mbling 2191
alley 2190
Flo@@ 2190
chap@@ 2189
digging 2188
figures 2187
suck 2185
ool 2185
outta 2185
rushed 2185
Inter@@ 2184
film 2184
ald 2184
ree 2182
aisle 2180
cker 2179
ak 2178
Street 2178
TY 2178
divorced 2177
riding 2176
dows 2176
WILLOW 2176
directly 2175
Normal 2174
shown 2173
design 2172
dit@@ 2171
mom@@ 2171
River 2170
ELQ 2170
pain@@ 2169
Professor 2169
ggie 2168
PRI@@ 2167
Mat@@ 2167
Ana 2166
AND 2166
bab@@ 2166
gest 2165
mini@@ 2165
Gil@@ 2164
plant 2163
Nic@@ 2163
cancel 2163
yle 2163
assy 2162
suggesting 2161
Lea@@ 2161
Gun@@ 2160
princess 2160
American 2159
loa@@ 2157
PHOEBE 2157
zi@@ 2156
desig@@ 2154
ap@@ 2154
wrap 2154
billy 2152
drawn 2148
turing 2147
Five 2147
drea@@ 2147
Kno@@ 2146
inging 2146
Getting 2145
Sk@@ 2143
disgusting 2142
Hel@@ 2141
AU@@ 2140
lion 2140
cy@@ 2139
expensive 2139
P.@@ 2139
uch 2138
mixed 2138
marlena 2138
plo@@ 2137
recogni@@ 2137
universe 2135
Rus@@ 2134
indeed 2134
disgu@@ 2134
nel 2134
testimony 2134
crush 2134
blah 2133
stab@@ 2132
gli@@ 2132
nar@@ 2132
Sister 2132
Min@@ 2131
scri@@ 2131
me-- 2130
apologized 2129
dition 2129
liqu@@ 2128
animal 2128
jewelry 2126
lec@@ 2126
brand 2124
Carl 2124
wl 2124
blackma@@ 2124
ety 2123
Ladies 2123
ras@@ 2122
onic 2121
trace 2121
bird 2121
discussing 2121
Prin@@ 2120
swing 2119
designer 2118
specific 2117
tone 2117
flu@@ 2117
Phi@@ 2116
Fin@@ 2115
LER 2114
trea@@ 2114
rank 2113
relationships 2113
slightly 2112
plus 2112
marks 2112
iss 2112
swore 2112
pause 2111
nearby 2111
Looking 2111
Anyone 2111
expert 2111
Bring 2110
swee@@ 2110
knees 2110
concerns 2110
JR 2110
JESS 2109
sample 2108
resi@@ 2107
tracks 2107
Dear 2107
motel 2107
Inhales 2107
18 2106
regrets 2106
thes 2105
charming 2105
Tomorrow 2105
mostly 2105
serv@@ 2105
wasted 2104
uti@@ 2104
stabbed 2104
Whispers 2104
Mu@@ 2103
cia 2103
Chancellor 2103
mask 2101
tension 2101
packed 2101
ores 2100
strike 2100
enne 2100
Carson 2099
ka 2099
argu@@ 2099
mil@@ 2098
slo@@ 2098
signal 2098
lean 2098
corridor 2097
rolling 2097
escaped 2097
mas 2097
STA@@ 2096
eggs 2096
gabi 2096
Din@@ 2094
faster 2093
Vi@@ 2093
jobs 2093
mmed 2093
tch@@ 2093
introduc@@ 2093
Juliet 2093
gate 2091
Im@@ 2091
play@@ 2091
raped 2089
too@@ 2088
blown 2088
pressing 2088
VICKI 2088
rate 2088
ama@@ 2086
attempted 2086
rant 2086
Josie 2086
identity 2085
crimes 2084
fever 2084
Move 2083
crack 2082
pin@@ 2081
ances 2081
romance 2081
celebration 2080
oner 2080
dy@@ 2078
collection 2077
erate 2077
initi@@ 2076
person@@ 2075
Ali 2074
diamond 2073
shoots 2072
rey 2072
eu@@ 2071
fea@@ 2070
confront 2069
slipped 2069
cab 2067
cer 2067
sal 2067
High 2066
ona 2066
plain 2065
Eu@@ 2065
ation@@ 2064
doc 2064
Mik@@ 2064
usive 2063
Z 2062
OFFICE 2062
orts 2061
dates 2061
PH@@ 2061
rape 2061
My@@ 2060
laptop 2060
TE 2060
wns 2059
via 2059
attached 2059
suspects 2059
Any@@ 2059
soft 2059
all@@ 2059
demons 2059
milk 2059
lover 2058
ops 2056
mid@@ 2056
baseball 2056
shine 2056
free@@ 2055
lawyers 2055
pres@@ 2054
LETHBRIDGE 2054
ense 2053
Cleo 2051
bou@@ 2050
pissed 2050
insurance 2049
Prince 2049
Law@@ 2048
bes 2048
Hor@@ 2048
frea@@ 2048
spin 2048
begged 2047
parts 2046
SFX 2046
B.J. 2046
versity 2045
charm 2045
interrupts 2044
witnesses 2043
detail 2042
punches 2042
fires 2042
corn 2042
Graham 2042
Commissioner 2041
eds 2040
angle 2040
cooking 2040
Close 2038
dated 2038
termin@@ 2037
M. 2037
Almost 2036
WE@@ 2035
tral 2035
bal 2035
psycho 2035
Madden 2035
radi@@ 2034
kicking 2034
LIZ 2034
HI@@ 2033
Grams 2033
connect 2032
Brad@@ 2032
ada 2031
inclu@@ 2030
SER@@ 2030
Sm@@ 2030
suggested 2029
candy 2028
softly 2028
impul@@ 2028
sexual 2027
stressed 2026
television 2026
blames 2026
pier 2025
Char@@ 2025
Addie 2024
insi@@ 2023
oods 2023
vie@@ 2022
bert 2022
ED 2021
hope@@ 2021
logical 2021
Hurry 2020
younger 2020
metal 2018
acks 2018
streets 2018
fiancée 2018
Carmine 2018
blowing 2017
Enjoy 2017
VER@@ 2016
Thinking 2015
Angelo 2015
Ri@@ 2015
Bartender 2015
ush 2014
discovered 2014
carried 2014
PARTMENT 2014
plastic 2013
tables 2013
Cora 2012
Tru@@ 2011
ghost 2011
circ@@ 2010
Squ@@ 2010
ME 2008
negoti@@ 2008
media 2008
Cabot 2006
delivery 2005
CU@@ 2004
paranoid 2004
ditional 2004
riage 2004
Cold 2003
pointing 2003
Whoever 2003
Sco@@ 2003
CAPTAIN 2003
twins 2001
cue 1999
abor@@ 1999
nings 1998
April 1997
Lt 1997
n'T. 1997
colle@@ 1996
approve 1996
frankly 1996
shaking 1995
shoulders 1995
assu@@ 1995
perspective 1995
instincts 1995
cave 1993
cheese 1993
tial 1993
BEN 1993
members 1992
steffy 1991
silence 1990
pin 1990
closing 1990
gon@@ 1990
ybrooke 1990
INTO 1989
General 1987
plat@@ 1986
tici@@ 1986
Hm 1986
eled 1985
atory 1985
carefully 1984
grin@@ 1984
twenty 1983
kly 1983
cassie 1983
recover 1982
learning 1982
holiday 1982
ET 1982
exit 1981
Red 1980
TOR 1980
mic 1979
kno@@ 1979
invol@@ 1979
cheer 1978
Telephone 1977
ddy 1977
CHRISTOPHER 1977
insist 1976
agenda 1975
spots 1975
oud 1975
transplant 1974
Livia 1974
discussion 1973
daughters 1972
grieving 1971
insul@@ 1971
SK@@ 1971
Mouth 1971
vol@@ 1970
partners 1970
punish 1970
Isaac 1969
alibi 1969
Ran@@ 1969
period 1969
Answer 1968
ata 1966
Jeff@@ 1965
stunned 1964
Having 1964
ego 1964
lecture 1963
doorway 1962
recall 1962
CEO 1962
torture 1961
permanent 1961
curse 1960
logy 1959
surgeon 1959
bodies 1959
frustr@@ 1959
Lieutenant 1959
Vega 1959
docu@@ 1958
Monitor 1958
helpful 1957
sabo@@ 1957
Addison 1957
applause 1956
Knocking 1954
Thought 1954
smu@@ 1953
equipment 1952
micro@@ 1951
reck@@ 1951
GA@@ 1951
hon@@ 1950
wallet 1950
Yet 1950
ANT 1950
arrangements 1949
bored 1949
Save 1948
remo@@ 1947
RU@@ 1947
entrance 1947
envelope 1946
tters 1944
gers 1944
necessarily 1944
esses 1944
INA 1944
therapist 1944
ris 1944
meds 1944
received 1943
behalf 1943
doll 1943
gal@@ 1942
gut 1942
unfair 1942
than@@ 1942
score 1942
kidnap 1942
transp@@ 1941
Off@@ 1941
blessing 1941
Evil 1941
True 1941
rub 1940
Mason 1940
partment 1938
elle 1938
sions 1937
casino 1937
itu@@ 1937
suppor@@ 1937
nanny 1937
fer@@ 1936
ars 1936
Bur@@ 1936
flesh 1936
lame 1935
Anybody 1935
memorial 1935
POL@@ 1935
Bas@@ 1934
stare 1934
fir@@ 1934
é@@ 1934
bones 1934
senses 1934
frustrated 1933
busted 1933
Reporter 1933
Ryder 1933
deca@@ 1932
NA@@ 1932
Fen 1932
oblig@@ 1931
eh 1931
posit@@ 1930
Room 1930
Pablo 1930
Cappie 1930
enger 1928
arri@@ 1928
weather 1927
Ravi 1927
fed 1926
Tur@@ 1926
eption 1926
Soon 1926
tested 1926
blanket 1926
anniversary 1926
CK 1926
grace 1926
victims 1924
eli@@ 1924
jer@@ 1923
stron@@ 1923
worn 1923
Donovan 1923
audience 1922
English 1921
terior 1921
shuts 1920
dogs 1920
gas@@ 1919
Wi@@ 1919
Truman 1919
tel 1918
Chan@@ 1918
cliff 1918
secure 1917
gin 1917
Carlo 1917
Rosalie 1917
whitney 1917
locks 1916
Their 1916
jected 1916
Ray@@ 1916
C.@@ 1915
ored 1915
self@@ 1915
disagree 1914
Cam 1913
Won@@ 1912
Calm 1912
legally 1911
pride 1911
mess@@ 1911
tricks 1910
refle@@ 1910
low@@ 1909
spy 1908
inte@@ 1908
studio 1908
tis@@ 1907
badge 1907
cheap 1906
cheat 1904
lousy 1903
arranged 1902
zer 1901
Cas@@ 1901
interfere 1900
lands 1899
CE 1899
California 1899
respon@@ 1898
repeat 1898
dramatic 1898
outs 1897
disappoint 1897
mix 1897
Cra@@ 1897
heck 1896
KER 1895
bath 1895
mi 1893
Going 1893
kne@@ 1892
ben@@ 1892
mal 1892
ENN@@ 1891
ordinary 1891
Grantham 1890
trade 1889
praying 1889
snea@@ 1887
Kathy 1887
minds 1887
ripped 1887
DE 1887
I've 1886
snow 1886
SHI@@ 1886
winning 1885
Whew 1885
stefan 1885
Dallas 1885
holly 1885
Cellphone 1885
Glad 1884
joking 1884
sends 1883
gal 1883
grun@@ 1882
courage 1882
bike 1882
sni@@ 1881
Some@@ 1881
MRS 1881
harm@@ 1881
oop 1881
wil@@ 1880
Res@@ 1880
ase 1880
dust 1880
prote@@ 1879
disa@@ 1879
pol@@ 1878
loaded 1878
don 1878
nurses 1878
ared 1876
apologizes 1875
Star 1875
provide 1874
pit@@ 1874
posted 1874
highly 1873
yourselves 1873
dam@@ 1872
lap 1871
INTER@@ 1871
lawsuit 1871
Es@@ 1870
wash 1869
Laurence 1869
sou@@ 1868
tire 1868
North 1868
Balsom 1868
neigh@@ 1867
Announcer 1867
Creations 1867
thless 1866
cket 1865
bble 1865
foundation 1865
Jones 1864
convincing 1864
Bart 1864
tons 1863
Ring 1863
hus@@ 1862
dreamed 1861
electri@@ 1860
violence 1860
forgiven 1860
grade 1859
gar 1858
Trent 1858
urgent 1857
compan@@ 1857
sea 1857
New@@ 1856
cal 1856
product 1856
less@@ 1855
elly 1855
hop 1854
kristen 1854
tac@@ 1853
ING@@ 1853
Lu@@ 1852
Ann 1852
sco@@ 1851
gifts 1850
folks 1848
section 1847
cheek 1847
events 1846
outh 1846
backup 1846
ID 1845
creature 1845
At@@ 1845
blonde 1844
presen@@ 1844
trusting 1844
Juan 1844
lows 1843
Martha 1843
rid@@ 1842
brush 1842
zo 1842
Is@@ 1842
a-- 1842
ssive 1841
Gar@@ 1841
overhears 1841
squee@@ 1839
reserv@@ 1838
introduce 1837
leader 1837
dol@@ 1837
Ric@@ 1837
serial 1837
oring 1835
signing 1835
don't-- 1835
Lou 1835
gist 1834
touching 1834
ghtly 1833
bly 1833
Ir@@ 1833
unhappy 1833
giggles 1832
thin 1832
XANDER 1832
Ma 1832
Anya 1831
horri@@ 1830
learns 1830
PA@@ 1830
tony 1830
ful@@ 1828
Barry 1828
lack 1826
Turn 1826
convic@@ 1826
honesty 1826
maker 1825
Arturo 1825
ature 1824
value 1824
pays 1824
Hopefully 1823
Bel@@ 1823
resid@@ 1822
dete@@ 1821
investigate 1821
forgetting 1821
wire 1820
tual 1820
16 1819
episode 1818
cil 1818
Crystal 1818
ole 1818
shoe 1817
une 1816
struc@@ 1816
ral 1815
prince 1815
sink 1813
struction 1813
alle@@ 1812
outfit 1812
LAB 1811
yell 1808
Company 1808
reports 1807
swe@@ 1807
admire 1807
lier 1807
KAREN 1807
port@@ 1806
waking 1805
Van 1805
mysterious 1804
Lansing 1804
mou@@ 1803
tment 1801
hooked 1800
Qui@@ 1800
SHE@@ 1800
replace 1799
struggling 1799
interests 1798
AG@@ 1798
rison 1798
bene@@ 1798
dollar 1797
ledge 1797
discre@@ 1797
neg@@ 1797
Heh 1796
but-- 1796
Meaning 1796
pet 1796
erk 1795
borrow 1794
mach@@ 1794
Shall 1794
itor 1793
occasion 1793
chain 1793
git@@ 1793
deed 1793
acti@@ 1792
Thunder 1792
prov@@ 1791
gram 1790
training 1790
proven 1790
homework 1790
sport 1789
swi@@ 1789
pink 1789
Sonia 1789
bilities 1788
spiri@@ 1787
Myrtle 1786
dresses 1785
hen@@ 1785
grounds 1785
sh1 1784
Joyce 1783
zar@@ 1782
bench 1781
ath 1781
butt@@ 1780
sales 1780
perfor@@ 1779
land@@ 1779
toy 1779
't-- 1778
ratt@@ 1778
Dr@@ 1778
students 1777
parties 1777
spread 1777
eks 1777
awfully 1777
awhile 1777
cock@@ 1776
science 1776
dish 1776
owns 1775
investigating 1775
sec 1774
ides 1774
touches 1774
high@@ 1774
FOR@@ 1773
hid 1773
grac@@ 1773
fair@@ 1772
conspir@@ 1772
accoun@@ 1772
Nadia 1772
what@@ 1771
bie 1771
wards 1770
thea@@ 1770
far@@ 1768
brid@@ 1768
tors 1768
rier 1767
enjoyed 1767
wha@@ 1766
Mari@@ 1766
Clark 1766
Julius 1766
update 1765
mile 1764
intervie@@ 1764
P. 1763
shrink 1763
deman@@ 1763
Gabrielle 1763
scoffs 1762
Rob@@ 1762
Eh 1762
Pen@@ 1761
Harry 1761
Springfield 1761
SO@@ 1760
bothered 1759
remove 1759
framed 1759
According 1759
Ob@@ 1759
denied 1758
rushing 1757
convenient 1757
organization 1755
oot 1755
ALL 1755
ZACK 1755
Ber@@ 1754
granted 1754
boxes 1753
betray 1753
im 1752
cakes 1752
NO@@ 1751
DER@@ 1751
embarrassing 1751
bott@@ 1751
ishes 1750
sia 1750
ghten@@ 1750
Vickers 1750
jam@@ 1749
halfway 1749
discussed 1749
ert 1749
convicted 1749
flat@@ 1748
*@@ 1748
dder 1747
begs 1746
strings 1746
Crimson 1746
tw@@ 1745
forth 1745
Deal 1745
sarah 1745
assa@@ 1744
incident 1744
Kiefer 1744
suit@@ 1743
ski@@ 1743
brooke 1743
rist 1742
strea@@ 1742
trail 1742
trauma 1742
blamed 1742
INS 1742
adopt 1741
disease 1740
Keri 1740
counts 1739
Vo@@ 1738
glances 1738
Mexico 1738
sakes 1738
Gretchen 1738
Smith 1738
abo@@ 1737
TT 1737
ing-- 1737
genu@@ 1737
childhood 1737
vity 1737
Light 1737
E. 1736
't 1736
fal@@ 1736
launch 1736
loses 1735
Hen@@ 1734
pos@@ 1734
juice 1734
vampires 1734
unit 1732
courthouse 1732
day@@ 1731
Roger 1731
president 1731
sale 1731
arrangement 1730
ities 1730
OWEN 1730
Inez 1729
pher 1728
gentleman 1728
Step@@ 1727
flies 1726
avoiding 1726
Christopher 1726
pour@@ 1725
resist 1725
Max@@ 1725
dness 1724
RAN@@ 1724
bartender 1724
Ty 1724
Isabella 1724
Quartermaines 1724
sheet 1723
para@@ 1723
whispers 1723
rina 1723
proper 1723
stefano 1723
surveillance 1721
xed 1721
tedly 1720
nosis 1720
coff@@ 1720
chip 1719
ROSS 1719
preten@@ 1718
bug 1718
mur@@ 1718
lac@@ 1718
tend 1718
DiMeras 1718
ila 1717
Grand@@ 1717
door@@ 1716
penthouse 1716
17 1715
represen@@ 1715
ache 1715
elot 1714
VICTORIA 1714
ssion 1713
pow@@ 1713
hoo 1713
inda 1713
Bennett 1713
serving 1712
sual 1710
recent 1710
Sus@@ 1710
lev@@ 1709
susp@@ 1709
bull 1709
mber@@ 1709
punished 1708
filed 1708
FF 1708
Johnson 1708
villa@@ 1708
accidentally 1707
LAN@@ 1707
earned 1707
drawer 1706
bowl 1706
dor@@ 1706
struggle 1705
mr 1705
female 1704
tat@@ 1704
adjust@@ 1704
proved 1704
challen@@ 1704
ial 1703
bling 1703
Resume 1703
FRAN@@ 1702
surrounded 1702
ren 1702
COL@@ 1702
Gabe 1702
patch 1702
misunder@@ 1702
abi@@ 1701
ine@@ 1701
response 1700
enn@@ 1700
actual 1700
skip 1700
Bi@@ 1699
humor 1699
ICE 1699
direct 1698
tant 1698
football 1698
mag@@ 1697
Tal@@ 1696
Morning 1694
911 1693
lobby 1693
suff@@ 1693
desire 1691
ax 1691
pop@@ 1691
Pan@@ 1690
object 1690
deb@@ 1690
Cho 1690
Ruth 1690
pure 1689
sign@@ 1689
eff@@ 1686
night@@ 1686
lily 1685
Elvis 1685
ith 1685
attractive 1684
-year 1684
god@@ 1684
aw@@ 1684
poker 1683
I.D. 1683
ror 1683
ouse 1683
chy 1683
catching 1681
Trying 1680
wls 1679
ene@@ 1679
pical 1679
rever@@ 1679
chimes 1679
worker 1678
MAX 1678
lower 1677
league 1677
mani@@ 1677
unch 1677
MER@@ 1677
Whit@@ 1676
routine 1676
bat 1676
Rama 1676
unior 1675
MO@@ 1675
wings 1674
life@@ 1674
Shirley 1673
wave 1672
drawing 1672
kar@@ 1672
port 1671
rehab 1671
Niki 1671
Jett 1671
wet 1670
Wat@@ 1670
inted 1670
poisoned 1670
Fu@@ 1670
Claudette 1670
Jonas 1669
booth 1668
ceful 1668
sandwich 1667
tray 1667
collap@@ 1667
soda 1667
Night 1666
Oz 1666
cage 1665
intended 1665
witches 1665
quar@@ 1665
transfer 1664
it-- 1664
joining 1663
The@@ 1663
mature 1663
goin' 1663
Sil@@ 1662
officers 1662
proposed 1662
Eliza 1662
tually 1660
zero 1659
gen 1658
Footsteps 1658
confronted 1657
yn 1657
restraining 1657
violent 1656
laughter 1656
mmm 1655
Bab@@ 1655
Such 1655
Sophie 1655
gent@@ 1654
MAN@@ 1654
bby 1654
presses 1653
perc@@ 1653
sticks 1652
intentions 1652
TAYLOR 1652
sins 1651
mor 1651
Green 1651
Mattie 1651
tches 1650
manages 1650
vious 1650
silver 1649
Yo 1649
Master 1649
groom 1648
honor@@ 1648
ZOE 1648
satis@@ 1647
ible 1646
motiv@@ 1645
era 1645
kil@@ 1644
financial 1643
holidays 1643
Christian 1643
rab@@ 1642
cauti@@ 1642
buzz@@ 1642
America 1642
inn 1642
wolf 1642
forces 1641
.O.@@ 1640
25 1640
you@@ 1640
bre@@ 1639
gam@@ 1638
dessert 1638
alike 1638
DR 1637
Levi 1637
RESIDENCE 1637
rope 1636
mall 1636
sume 1636
overnight 1636
result 1636
Nicky 1636
julian 1636
sports 1635
Rest@@ 1635
decl@@ 1635
wins 1634
Lindsey 1634
STO@@ 1633
Rump@@ 1633
neighborhood 1632
Hayes 1631
sofa 1630
facility 1630
nur@@ 1630
ign 1629
torn 1629
lis 1629
pig 1628
habit 1628
dless 1628
tally 1628
SC@@ 1627
pillow 1627
blackmailing 1627
threatens 1627
Doyle 1627
Gee 1627
degree 1626
gla@@ 1626
ora 1626
balance 1625
services 1625
lized 1625
tragedy 1624
hip 1624
Kenny 1623
debt 1623
alert 1622
mnh 1622
tunnel 1621
predic@@ 1621
respond 1619
garden 1619
Four 1618
slu@@ 1617
extra@@ 1617
clears 1616
symbo@@ 1616
sober 1616
mpson 1616
damned 1616
is-- 1615
Tr@@ 1615
nat@@ 1615
tol@@ 1615
liff 1615
ruining 1615
loft 1615
Applause 1614
propose 1614
Gosh 1614
RA 1614
jun@@ 1613
inny 1612
tance 1612
ggling 1612
assing 1612
200@@ 1611
emotions 1610
cameras 1609
returning 1609
assured 1609
Yay 1609
alty 1608
egg 1608
sneaking 1607
ads 1607
midnight 1606
ices 1606
boarding 1606
reporter 1605
clients 1604
loan 1604
assignment 1603
psychiatrist 1603
chosen 1603
tains 1602
take@@ 1602
pose 1602
misunderstanding 1602
lish 1601
pul@@ 1601
slut 1601
critical 1600
vest@@ 1600
bear@@ 1600
paren@@ 1600
tely 1599
crystal 1599
kay 1599
adventure 1599
altar 1599
Jacks 1599
LEELA 1599
salem 1599
dozen 1598
post@@ 1598
impressive 1598
CH 1598
gloves 1596
pub@@ 1595
scope 1594
console 1593
gement 1592
reun@@ 1592
belt 1591
inks 1591
rin 1591
pilot 1591
Halloween 1591
compared 1590
suicide 1590
stiltskin 1590
whispering 1589
corporate 1589
gust 1589
disappears 1589
anci@@ 1588
feeding 1588
uh-- 1588
ultimat@@ 1588
Suzanne 1588
Falconeri 1588
CL@@ 1587
sin 1587
Whi@@ 1587
geant 1587
iest 1586
sympathy 1586
manipulate 1586
MOUTH 1586
tering 1585
tox@@ 1585
pse 1585
Rae 1585
lit 1584
talented 1584
imagined 1584
accusations 1584
noble 1583
concert 1583
urges 1583
CLARA 1583
KI@@ 1582
Lane 1582
host 1582
candles 1581
rash 1581
Hodges 1581
Nat@@ 1580
cup@@ 1580
expression 1580
lia 1580
appropriate 1579
fic 1579
gang 1579
lock@@ 1579
quality 1579
approaching 1578
Pl@@ 1578
Deb 1578
Marone 1578
fellow 1577
Run 1577
comment 1577
docks 1577
Vimal 1577
fru@@ 1576
sally 1576
studying 1575
picnic 1575
asse@@ 1574
BAR@@ 1574
stle 1574
nervously 1573
sage 1573
mountain 1572
compare 1572
dining 1571
chill 1571
missi@@ 1570
prin@@ 1570
underest@@ 1570
show@@ 1570
Korbel 1570
accep@@ 1569
thri@@ 1569
waitress 1569
higher 1569
represent 1569
voices 1569
temper 1569
SLOANE 1568
som 1568
weapons 1567
destruc@@ 1567
snap 1567
24@@ 1566
ins@@ 1565
rene@@ 1565
sil@@ 1564
Op@@ 1564
Had 1564
honored 1564
rare 1563
Aww 1563
congratul@@ 1562
clever 1562
tall 1562
sus@@ 1562
Cri@@ 1562
email 1562
lifts 1561
pile 1561
GRO@@ 1561
Jarrett 1561
deeper 1560
employee 1559
prevent 1558
below 1558
mony 1558
wra@@ 1557
circle 1557
ino 1557
Roxanne 1557
Del 1556
joint 1556
esome 1556
Mur@@ 1556
Sweet 1556
annulment 1556
questioned 1555
contest 1555
assault 1555
Sla@@ 1555
anging 1554
pois@@ 1554
ggy 1553
mation 1552
BU@@ 1552
illness 1552
ood@@ 1552
stent 1551
technically 1551
Makes 1551
CONT'D 1551
normally 1550
Af@@ 1550
gown 1550
sian 1550
current 1550
doin' 1550
Samuel 1550
ider 1549
skull 1549
reluc@@ 1549
attend 1548
priest 1548
mour@@ 1548
accuses 1548
suits 1547
anda 1547
forms 1546
pressur@@ 1546
Her@@ 1546
JE@@ 1546
ciara 1546
BRI@@ 1545
posse@@ 1545
diag@@ 1545
pleasant 1545
oom 1544
teenager 1544
rational 1543
fears 1543
Bla@@ 1543
eing 1542
upside 1542
dom@@ 1542
Boss 1541
web@@ 1541
pulse 1540
towel 1540
VE 1540
backing 1540
em@@ 1539
starving 1539
yells 1538
privile@@ 1538
Orpheus 1538
Lakeview 1538
snapp@@ 1537
T. 1537
adorable 1537
KIRK 1537
wning 1536
discover 1536
Coughs 1536
ust 1535
flower 1535
nut 1535
pauses 1534
headache 1534
thi@@ 1534
instructions 1534
adults 1534
fashi@@ 1533
Fol@@ 1533
perform 1533
Ram@@ 1532
burst 1532
Tri@@ 1532
bro 1532
Careful 1531
undercover 1531
are@@ 1531
arrange 1531
terribly 1531
reta@@ 1530
awa@@ 1530
attacks 1529
kable 1529
indust@@ 1528
payback 1528
body@@ 1527
NI@@ 1527
Consid@@ 1527
makeup 1527
plea 1526
danc@@ 1525
organi@@ 1525
Neal 1525
Wheeler 1525
backwards 1524
advis@@ 1524
ron 1524
injured 1524
Shi@@ 1523
MMY 1523
Dra@@ 1522
50@@ 1522
spite 1522
postp@@ 1522
tery 1521
creepy 1521
Bree 1521
hero@@ 1520
joined 1520
Coco 1520
regarding 1519
ast@@ 1519
alo@@ 1519
blind@@ 1518
dragging 1518
pit 1518
KS 1517
hunt 1516
legacy 1516
eni@@ 1515
strangers 1515
proper@@ 1515
bachel@@ 1515
confidenti@@ 1514
thing-- 1514
Art 1514
goal 1513
seduc@@ 1513
freezing 1513
US@@ 1512
tte 1512
conversations 1512
sympa@@ 1512
Vic 1512
desperately 1511
removed 1511
sacrific@@ 1511
bracelet 1511
gather 1510
costume 1510
essing 1510
mates 1510
exam 1510
jokes 1510
season 1510
trusts 1509
range 1509
kets 1509
Gabby 1509
PRO@@ 1508
bil@@ 1508
tress 1508
earn 1508
Var@@ 1508
Walsh 1508
clicks 1507
reali@@ 1507
fox 1506
inev@@ 1504
As@@ 1504
ised 1504
physically 1503
scienti@@ 1502
psy@@ 1502
bbed 1502
sam 1502
shouting 1501
rou@@ 1501
bargain 1501
check@@ 1501
disapp@@ 1501
flash@@ 1500
LAS 1500
Stanley 1500
dial 1499
ATION 1499
mit@@ 1498
suspe@@ 1498
hint 1498
sarca@@ 1498
unlike 1498
lement 1498
ened 1497
ach@@ 1497
uring 1496
Dav@@ 1496
strategy 1496
wrec@@ 1496
14 1496
expect@@ 1496
nonsense 1496
naive 1495
AD 1495
shadow 1495
Melinda 1495
destroying 1494
lli@@ 1494
side@@ 1494
ko 1494
citi@@ 1494
general 1494
reaching 1493
random 1493
bills 1493
coughs 1492
among 1492
knee 1492
classes 1492
Lan@@ 1492
jabot 1492
fies 1491
18@@ 1491
eller 1490
gest@@ 1490
uniform 1490
performance 1490
acht 1490
Dr 1490
Jenna 1490
snaps 1489
Aggie 1489
filling 1488
Mnh 1488
rance 1487
ment@@ 1487
roommate 1487
Daleks 1487
MR 1486
xes 1486
suing 1486
include 1486
tti 1486
FE@@ 1485
attracted 1485
compliment 1485
vise 1485
asses 1485
ACE 1485
D.N.A. 1485
fridge 1484
meat 1484
fts 1483
fingerprints 1483
kle 1483
tending 1483
intru@@ 1482
cane 1482
ou 1482
les@@ 1482
pointed 1481
pan 1481
Pop 1481
xander 1481
tracked 1480
ject 1480
conscious 1479
profile 1478
Way 1478
Wake 1478
Ari 1478
derly 1477
ind 1477
Countess 1477
rence 1476
San 1476
regar@@ 1476
cc@@ 1476
ount 1476
Rocco 1476
helicopter 1475
meetings 1475
thouse 1475
ured 1475
Might 1475
faking 1475
vali@@ 1474
smells 1474
MARTHA 1474
switched 1473
rink 1473
coach 1473
Feel 1473
bits 1473
f*@@ 1473
custom@@ 1472
ensics 1472
Nev@@ 1472
helpless 1472
abandon 1472
ly-- 1472
BRASS 1472
waits 1471
Williams 1471
stepping 1470
Italy 1470
hourglass 1470
Moe 1470
victoria 1470
WILL 1469
licate 1469
language 1469
basketball 1469
END 1469
rd 1469
Warren 1469
iny 1468
Carol 1468
injury 1467
los@@ 1467
Whispering 1467
cigar@@ 1466
government 1466
booked 1466
realiz@@ 1466
failure 1466
rot 1466
Dep@@ 1466
rafe 1466
hm 1465
swim 1465
accuse 1465
Indistinct 1465
sami 1465
delicious 1464
KE@@ 1464
millions 1464
murder@@ 1463
Drew 1463
safely 1462
vering 1462
YAT@@ 1462
kate 1462
escort 1461
cleaned 1461
election 1461
scheme 1460
fraud 1460
etern@@ 1459
Durant 1459
review 1458
rs 1458
mutual 1458
ZACH 1458
adopted 1458
leaning 1457
Just@@ 1457
darkness 1456
clea@@ 1456
signific@@ 1456
Domin@@ 1456
DER 1456
stration 1455
snake 1455
creep 1455
Mea@@ 1455
cel@@ 1454
balcony 1454
Security 1454
constant 1454
puzz@@ 1454
emer@@ 1454
authorities 1454
douglas 1454
phe@@ 1453
iti@@ 1453
appeal 1453
ensive 1453
passionate 1453
ILL 1453
wore 1452
abigail 1452
Uther 1452
Car 1451
heartbeat 1451
sands 1451
confir@@ 1450
involvement 1450
harsh 1450
vement 1450
pattern 1449
swit@@ 1448
Up 1448
MERLIN 1448
rough@@ 1447
rest@@ 1447
risks 1447
district 1447
Into 1446
attempts 1445
tler 1445
Rom@@ 1444
firing 1444
confirm 1443
ud 1443
scares 1443
prize 1443
JU@@ 1443
Davina 1443
newman 1443
LOU@@ 1442
ffing 1442
attacking 1442
tos 1442
buttons 1441
backed 1441
effects 1441
Stor@@ 1441
coward 1441
deliberately 1440
Luc@@ 1440
bom@@ 1439
ggle 1439
ale@@ 1439
vin@@ 1439
Chuck 1439
Russ 1439
educ@@ 1438
informed 1438
dressing 1437
soup 1437
devoted 1437
cle 1436
Luci@@ 1436
MP@@ 1435
itted 1435
valuable 1435
ALE@@ 1435
SPIKE 1435
blank 1434
Wendy 1434
landed 1433
strip 1433
care@@ 1433
removes 1432
boar@@ 1432
ggage 1432
UNI@@ 1432
Tense 1432
kn@@ 1431
supposedly 1431
ssions 1431
]@@ 1431
frowns 1431
shrugs 1430
cess 1430
correc@@ 1430
SIDE 1430
Gia 1430
sex@@ 1429
this-- 1429
describe 1429
accompli@@ 1428
medi@@ 1427
judging 1427
wheelchair 1426
FF@@ 1426
compromise 1426
Aw@@ 1426
ROMANA 1426
who@@ 1425
moral 1425
Its 1425
happiest 1425
FLASHBACK 1425
opti@@ 1425
MUSIC 1424
laundry 1424
verse 1423
wrist 1423
minor 1423
civi@@ 1423
ditions 1423
dealt 1423
yo@@ 1423
ame@@ 1423
gambling 1423
Em 1423
Friday 1422
spea@@ 1422
Fisher 1421
involve 1421
rocks 1421
bum 1421
McGee 1421
repor@@ 1420
pitch 1420
announcement 1420
tower 1419
limo 1419
intenti@@ 1419
tumor 1419
eves 1418
annoying 1418
satisfied 1418
THER 1418
scheduled 1417
oppo@@ 1417
Andre@@ 1417
traffic 1416
cap 1416
err@@ 1416
crashing 1416
WAR@@ 1416
Violet 1416
Alfred 1416
eats 1415
ghting 1415
pounds 1415
VE@@ 1415
imagination 1415
PAIGE 1415
Bus@@ 1414
inch 1414
complaining 1414
compassion 1414
cells 1413
quo@@ 1413
sev@@ 1413
Face 1413
separated 1413
limits 1413
plac@@ 1412
ckets 1412
fascin@@ 1412
phan@@ 1412
prescription 1412
don'T. 1412
mpl@@ 1411
useful 1411
tune 1411
surrog@@ 1411
Earl 1411
MICHEL 1411
stic@@ 1410
imate 1410
ggs 1410
Calvin 1410
Family 1409
dou@@ 1409
itation 1409
effe@@ 1408
horses 1408
crow@@ 1407
y'know 1407
occurred 1407
innoc@@ 1407
abby 1407
Rigsby 1407
cry@@ 1406
noti@@ 1406
smooth 1406
sum@@ 1406
Ali@@ 1406
canc@@ 1406
Part 1406
mander 1406
nursery 1406
CHI@@ 1406
can'T. 1406
T.J. 1406
contribu@@ 1405
gni@@ 1405
achi@@ 1405
Stan@@ 1405
tub 1404
fights 1404
grandchild 1404
stered 1403
mia 1403
senti@@ 1403
soldier 1402
trunk 1401
Jon@@ 1400
Reverend 1400
scenes 1399
ater 1399
ades 1398
esy 1397
sand 1397
creative 1397
accepting 1397
Comp@@ 1397
ANYA 1397
DAWN 1397
link 1396
rying 1396
soci@@ 1396
surface 1396
testing 1396
distraction 1396
pill 1395
examine 1395
ocean 1395
customers 1394
PIPER 1394
unexpected 1393
extreme 1393
Up@@ 1392
faithful 1392
anny 1392
epti@@ 1390
Broo@@ 1390
similar 1389
sof@@ 1389
basket 1389
thoughtful 1389
VOICE 1388
CITY 1388
ounce 1388
giant 1387
recovering 1387
jects 1387
weal@@ 1387
Funny 1387
Mine 1387
plead 1387
SY 1387
faced 1386
treasure 1386
baby@@ 1385
windows 1385
Thi@@ 1385
COMM@@ 1385
nt 1384
lled 1384
McCall 1384
expose 1383
advises 1383
martin@@ 1382
distract 1382
fairy 1382
Run@@ 1381
AP@@ 1381
ope 1381
princi@@ 1381
Pal@@ 1381
Surprise 1381
cran@@ 1381
mirac@@ 1380
Seeing 1380
closure 1380
POLLY 1380
dio 1379
swal@@ 1379
halluc@@ 1379
material 1379
Britney 1379
ere@@ 1378
Flashback 1378
forehead 1378
stroke 1378
fills 1377
Start 1377
disappearance 1377
dest@@ 1377
swings 1376
Best 1376
climb 1375
atch 1375
fishing 1375
Shan@@ 1375
Flu@@ 1375
ceiling 1374
dow 1373
DO 1373
apologi@@ 1373
Kin@@ 1373
sei@@ 1372
GH@@ 1371
frightened 1371
hy 1371
ghted 1371
Home 1370
list@@ 1370
saint 1370
ARA 1370
sharon 1370
approval 1369
ador@@ 1369
stam@@ 1369
Noelle 1369
balls 1368
differences 1368
favors 1367
Vic@@ 1367
annoyed 1367
hhh 1366
firm 1366
menti@@ 1365
ille 1365
spect@@ 1365
castle 1365
wre@@ 1365
pours 1364
oil 1364
Wyndemere 1364
Alexander 1363
trees 1363
resting 1363
eld 1363
appro@@ 1363
gesture 1363
oody 1363
increa@@ 1362
forgiving 1362
spi@@ 1362
concei@@ 1362
wounds 1361
ators 1361
yne 1361
accomplished 1361
discovers 1360
chips 1360
closely 1360
keeper 1360
mbers 1360
visions 1360
arti@@ 1359
MARSHALL 1359
Jac@@ 1359
ets 1359
deck 1359
upsetting 1359
oops 1358
seats 1358
dict 1358
magical 1358
federal 1357
rose 1357
ow@@ 1357
Stammers 1357
M.@@ 1356
Bulldog 1356
misery 1355
smo@@ 1355
craz@@ 1355
confirmed 1354
ordin@@ 1354
gol@@ 1354
Hear 1354
Also 1353
burden 1352
visitors 1352
bey 1352
TUR@@ 1352
Bernie 1352
eared 1351
main@@ 1351
Gran@@ 1351
class@@ 1351
'T. 1351
Work 1350
pretended 1350
eye@@ 1350
recon@@ 1349
states 1349
infe@@ 1349
PER@@ 1349
crashed 1348
hear@@ 1348
constantly 1348
pour 1348
civil 1348
territory 1348
JACKSON 1348
entitled 1347
com 1347
buzz 1347
dedic@@ 1347
ington 1347
visitor 1347
Kirk 1347
ross 1346
blast 1346
were@@ 1346
grant 1345
confusing 1344
Str@@ 1344
occupied 1344
patience 1344
request@@ 1343
tracking 1343
consu@@ 1343
anner 1343
hales 1343
Roberts 1343
carries 1342
black@@ 1342
flip 1342
sharp 1341
Clear 1341
UR 1341
stalking 1341
safer 1341
Ashleigh 1341
agency 1340
minister 1340
crimin@@ 1340
Done 1340
WHIT@@ 1340
Cyber@@ 1340
phyllis 1340
ade@@ 1339
wo@@ 1339
ate@@ 1339
medic@@ 1339
Chil@@ 1339
ddle 1339
bled 1338
good@@ 1338
BENTON 1338
reward 1337
turkey 1337
non@@ 1337
Miller 1337
att 1337
Sinclair 1337
ado@@ 1336
insult 1336
hot@@ 1336
mper@@ 1335
nels 1335
WA@@ 1334
essed 1334
mercy 1334
practic@@ 1334
senten@@ 1333
sche@@ 1333
seduce 1333
Ralph 1333
ares 1332
bo 1330
Lab 1330
batt@@ 1330
thetic 1329
stles 1329
otic 1329
Real 1329
cooper@@ 1328
nov@@ 1328
sav@@ 1328
EVENING 1328
Beauty 1328
delusional 1327
anony@@ 1327
holy 1327
STE@@ 1327
concept 1326
ba 1326
web 1326
terro@@ 1326
shooter 1326
injuries 1326
unusual 1325
luck@@ 1325
ular 1325
employees 1324
itable 1324
yan@@ 1324
lings 1324
fragile 1324
FIL@@ 1324
scam 1324
reminding 1324
Duncan 1324
continu@@ 1323
tag 1323
will@@ 1323
cred@@ 1323
wherea@@ 1323
scand@@ 1323
DS 1322
ffed 1322
wart 1322
Hear@@ 1322
hit@@ 1322
proc@@ 1321
cheer@@ 1321
wished 1321
.J. 1321
spac@@ 1321
Tu@@ 1320
signature 1320
brief 1319
kin@@ 1319
mana@@ 1319
enterta@@ 1318
afterwards 1318
S.@@ 1318
scru@@ 1318
bitter 1318
hiring 1317
Rome 1317
authority 1317
operate 1317
healing 1317
Somehow 1317
pad 1316
onment 1316
bait 1316
mails 1316
clean@@ 1316
reminder 1316
Crow@@ 1316
seni@@ 1315
Waitress 1315
conc@@ 1314
ich 1314
Texas 1314
k-- 1314
punishment 1313
KING 1312
Gent@@ 1312
mly 1311
Glenn 1311
exposed 1310
ERS 1310
hard@@ 1309
crane 1309
ankle 1308
intimid@@ 1308
thief 1308
Speci@@ 1307
separ@@ 1307
hospit@@ 1307
Chinese 1306
fically 1306
sucked 1306
han 1306
agg@@ 1306
conveni@@ 1305
alien 1305
tragic 1304
osity 1304
affected 1304
Sto@@ 1304
soldiers 1304
CK@@ 1304
Cohen 1303
Good@@ 1303
zel 1303
Vivi@@ 1303
licking 1302
propo@@ 1302
geous 1302
attic 1302
tech 1301
toys 1301
fooled 1301
mpy 1301
Spectra 1301
motions 1300
nal 1300
kness 1300
mothers 1300
Denise 1300
was-- 1299
thick 1299
pre 1299
demand 1299
liver 1299
promising 1298
useless 1298
vac@@ 1298
convinces 1298
figur@@ 1298
policy 1298
pans 1298
endant 1297
tale 1297
CONTROL 1297
bid@@ 1297
HALLWAY 1297
QUINN 1297
army 1296
slap 1295
atives 1295
engine 1295
School 1295
psychic 1295
ese 1294
defendant 1294
D.@@ 1293
manipulated 1293
rida 1293
washed 1292
Clearly 1292
interf@@ 1292
testi@@ 1292
conduc@@ 1291
gratitude 1291
chloe 1291
atal 1290
even@@ 1290
matic 1290
whore 1290
ctly 1290
Zo@@ 1290
sday 1289
pha@@ 1289
acker 1289
responsi@@ 1289
destiny 1289
f*ck 1289
mit 1288
ang 1288
13 1288
ucky 1288
active 1287
ffe@@ 1287
ician 1287
forgave 1287
coffin 1286
twi@@ 1286
teria 1286
risky 1286
spinning 1286
resources 1286
hill 1286
lls 1286
proto@@ 1285
marke@@ 1285
mbled 1285
suc@@ 1285
spill 1285
kyle 1285
instinct 1284
storage 1284
spl@@ 1284
sat@@ 1284
spee@@ 1284
ghest 1283
enthusi@@ 1283
Whose 1283
importantly 1283
ka@@ 1283
forcing 1283
rical 1282
damaged 1282
ttle 1282
FIR@@ 1282
arraig@@ 1282
admir@@ 1281
briefcase 1281
chart 1281
Wo 1281
surely 1281
Hil@@ 1281
heels 1280
start@@ 1280
Stella 1280
dar 1280
kes@@ 1280
jus 1280
loop 1279
dealer 1279
spoil 1279
invites 1279
shortly 1278
Medic@@ 1278
smetics 1278
parked 1277
West@@ 1277
Harris 1277
bump 1277
Laurie 1277
abe 1277
PO@@ 1276
infection 1276
Dalek 1276
smoking 1275
ism 1275
twork 1275
ros 1275
Archie 1275
ligent 1275
brain@@ 1274
ware 1274
eyebrows 1274
denial 1274
rowed 1274
CHRIS 1274
sincere 1273
autopsy 1273
Australia 1273
multi@@ 1273
lah 1273
denies 1273
U.@@ 1272
spying 1272
frozen 1272
sna@@ 1272
Gover@@ 1272
Seattle 1272
Lon@@ 1272
motives 1272
fan@@ 1271
Totally 1270
bin@@ 1270
BB@@ 1270
licks 1270
observ@@ 1270
Bones 1270
description 1269
scratch 1269
ttering 1269
sul@@ 1269
Other 1268
gently 1268
circu@@ 1268
couples 1268
eehouse 1268
sheets 1267
Wh 1267
soa@@ 1266
lessly 1266
teaching 1266
antonio 1266
top@@ 1265
fav@@ 1264
ender 1264
Whether 1264
eth@@ 1264
asco 1264
shell 1263
yellow 1263
gree@@ 1263
hosti@@ 1263
captain 1263
dame 1263
Dor@@ 1263
bour@@ 1263
Nature 1263
Kaitlin 1263
blocks 1262
pron@@ 1262
onds 1262
relevant 1261
LA 1261
spit 1261
stun@@ 1261
quarters 1260
bbles 1260
Mun@@ 1260
trained 1259
JOEY 1259
establi@@ 1259
pus@@ 1259
miscar@@ 1259
Megan 1259
tank 1258
Afri@@ 1258
samples 1258
thletic 1258
winner 1257
freeze 1257
thanking 1257
doorbell 1257
rebe@@ 1257
SSA 1257
elimin@@ 1256
Elevator 1256
> 1256
diary 1256
tradition 1256
reunion 1256
chick 1256
Swee@@ 1256
spil@@ 1255
impress 1255
desc@@ 1255
jack@@ 1255
ution 1255
Alone 1255
Admit 1255
urally 1254
phys@@ 1254
overreacting 1253
explaining 1253
cooperate 1252
pardon 1252
west 1251
Pause 1251
yo 1251
recovered 1251
cras@@ 1251
lling 1251
Ianto 1251
refer@@ 1250
toe 1250
phy 1250
ser 1249
slack 1249
Granddad 1249
expe@@ 1248
Slow 1248
conflict 1248
Callie 1248
Mwah 1248
unable 1247
not-- 1247
storms 1247
mate@@ 1246
schoo@@ 1246
TRA@@ 1246
Ang@@ 1246
BLA@@ 1246
Ash 1246
pops 1245
Know 1245
Liv 1245
Uni@@ 1244
rehear@@ 1244
ker@@ 1244
LL 1244
mbo 1244
pipe 1243
antly 1243
struck 1243
pursue 1242
polite 1242
leverage 1242
sane 1242
O'Neill 1242
theo 1242
choosing 1241
Angelina 1241
Hernandez 1241
series 1240
Six 1240
zen 1240
accepts 1240
PCPD 1240
ste 1239
legitimate 1239
particularly 1239
Lila 1239
analy@@ 1238
LIE 1238
evalu@@ 1238
know-- 1238
Ginger 1238
ahem 1238
publicity 1238
causes 1238
Adrian 1238
40 1238
orange 1237
pro 1237
Mac@@ 1237
acked 1237
mistaken 1237
overwhelmed 1237
tricked 1237
thankful 1237
Maureen 1237
gia 1236
Beautiful 1236
Pick 1236
GAR@@ 1236
Lockhart 1236
interrogation 1235
gallery 1235
classic 1234
claiming 1234
ented 1234
TRI@@ 1234
CHANDLER 1234
paul 1234
string 1233
tips 1233
insan@@ 1233
foolish 1233
sings 1233
justify 1233
@@ 1233
ffy 1233
activity 1232
canceled 1232
conclu@@ 1232
I'@@ 1231
counselor 1231
ENS 1231
Ver@@ 1231
GRE@@ 1231
mrs 1231
NC@@ 1230
Cen@@ 1230
real@@ 1230
respected 1230
Sing@@ 1230
Cho@@ 1229
ooth@@ 1229
Charming 1229
zone 1228
Phil@@ 1228
speciali@@ 1228
provo@@ 1228
IL 1228
stalker 1228
booze 1228
Craw@@ 1228
Nik 1228
menu 1227
cabin@@ 1227
amedic 1227
accur@@ 1226
tched 1226
kidnapper 1226
david 1226
believable 1226
treats 1226
solu@@ 1225
eline 1225
arrogant 1225
Tea@@ 1224
ual 1224
blan@@ 1224
Coff@@ 1224
katie 1224
whatsoever 1223
collect 1223
stair 1223
Kol 1223
investment 1222
Ball 1222
personality 1222
DOR 1222
cas 1222
Min 1222
TEGAN 1222
raid 1221
bent 1221
grip 1221
struggles 1220
collapsed 1220
suggestion 1220
premi@@ 1220
golden 1219
ece 1219
bster 1219
cin@@ 1219
Cris 1219
Ji 1219
belonged 1218
las 1218
motorcycle 1218
RIVER 1218
moun@@ 1218
ANG@@ 1218
situ@@ 1217
kles 1217
Intern@@ 1217
Terri 1217
dead@@ 1216
horror 1216
predictable 1216
scaring 1216
houses 1216
Minister 1216
ferti@@ 1216
Gir@@ 1216
ligence 1215
massage 1215
Lam@@ 1215
itter 1215
pages 1215
sweat 1215
spa 1215
justi@@ 1215
reconsider 1215
Wrong 1214
rice 1214
title 1214
shelter 1214
Nel@@ 1214
MONICA 1214
emotionally 1213
burger 1213
birds 1213
voicemail 1213
scenario 1212
ound@@ 1212
business@@ 1212
impact 1212
pir@@ 1212
DIXON 1211
ference 1211
TION 1211
blur@@ 1211
amends 1211
cemetery 1211
gunshot 1210
squea@@ 1210
Sad@@ 1210
murders 1210
WOMAN 1210
PI@@ 1210
ef 1210
lities 1209
outra@@ 1209
inviting 1208
national 1208
dged 1208
Rev@@ 1208
Fal@@ 1208
rit@@ 1208
director 1207
diam@@ 1207
cell@@ 1207
Sher@@ 1207
essor 1206
century 1206
hides 1206
dding 1206
popular 1206
berry 1206
Ron 1205
ve-- 1205
driven 1205
wed@@ 1205
bac@@ 1205
West 1205
squad 1205
law@@ 1205
Cotton 1205
sac@@ 1204
controlling 1204
seful 1204
Doing 1203
stant 1203
dent 1203
landing 1203
anne 1203
governor 1203
needing 1202
south 1202
clothing 1202
gur@@ 1202
Dale 1202
referring 1201
dang@@ 1201
standard 1201
succeed 1201
counsel@@ 1201
Tea 1201
slide 1200
wipe 1200
apers 1199
replac@@ 1199
shipment 1199
usting 1199
RON@@ 1199
Drop 1198
abuse 1198
q 1198
bin 1198
Narrator 1198
nership 1197
admitting 1197
apple 1196
envir@@ 1196
asping 1196
Forgive 1195
Kill 1195
illing 1195
fore 1195
Fair 1195
stab 1194
cement 1194
so-- 1194
furniture 1194
stunt 1194
Leyla 1194
claim@@ 1193
gathered 1193
descri@@ 1193
flew 1193
Terry 1193
Eli@@ 1193
sta 1193
kit 1192
tine 1192
etic 1191
Use 1191
supply 1191
demon@@ 1190
Taking 1190
added 1190
serves 1190
conclusions 1190
elo@@ 1190
FI@@ 1189
GREG 1189
rex 1189
owned 1188
ARK 1188
eable 1188
eaves@@ 1188
every@@ 1188
Scorpio 1188
Weiss 1187
Grun@@ 1187
alternative 1187
rite 1186
handcuffs 1186
TA 1186
stit@@ 1186
intimate 1186
Harv@@ 1186
vide@@ 1186
Ash@@ 1186
rounds 1185
commerci@@ 1185
auer 1185
ault 1184
eaten 1184
twist 1184
journey 1183
stitute 1183
Industries 1183
sco 1182
Gen@@ 1181
woo@@ 1181
occa@@ 1181
tsy 1181
potion 1181
WAL@@ 1181
ounge 1180
apologizing 1180
edit@@ 1180
Haunted 1180
onny 1180
unique 1179
nails 1179
STU@@ 1179
certificate 1179
ord 1178
conclusion 1178
Geor@@ 1178
understandable 1178
Frederick 1178
Gab@@ 1178
CLAY 1178
flames 1177
Cin@@ 1177
society 1177
fourth 1176
rides 1176
dles 1176
dose 1176
wy@@ 1176
documents 1175
concer@@ 1175
experienced 1175
close@@ 1175
SCO@@ 1175
Waiter 1175
Tw@@ 1174
depo@@ 1174
began 1174
LY@@ 1174
cross@@ 1174
erno 1174
bullets 1173
Wed@@ 1173
mors 1173
inner 1173
mary 1173
spoiled 1173
blessed 1173
exper@@ 1173
sickness 1173
Harding 1173
campus 1172
mechan@@ 1172
winds 1172
seek 1172
bouts 1172
O.R. 1172
needle 1171
plot 1171
NER 1171
WALLACE 1171
France 1170
sorts 1170
Off 1170
heir 1170
DVD 1169
ri 1169
net 1169
abs@@ 1169
guitar 1169
toss 1168
Behind 1168
enty 1168
fume 1168
marrow 1168
gossi@@ 1168
animals 1168
BEDROOM 1168
Hawaii 1168
op 1167
ous@@ 1167
guarante@@ 1167
STOCK 1167
dele@@ 1166
Women 1166
Cro@@ 1166
Imagine 1165
Fl@@ 1165
owes 1165
accomplish 1165
belief 1165
excit@@ 1165
rises 1165
confesses 1164
Frank@@ 1164
syn@@ 1163
pid 1163
chamber 1163
symptoms 1163
hael 1163
JULIAN 1163
Titan 1163
CONTINUOUS 1163
Satur@@ 1162
here@@ 1162
xy 1162
disappointment 1162
Vicki 1162
monkey 1162
Been 1162
Q@@ 1161
ffled 1160
lays 1160
remar@@ 1160
handing 1160
stly 1160
Pic@@ 1160
pa 1160
ringe 1159
vehicle 1159
Bir@@ 1159
Making 1159
shar@@ 1158
TY@@ 1158
unfortunate 1157
CRE@@ 1157
stuffed 1156
waiter 1156
consciousness 1156
Past 1156
rotten 1156
adver@@ 1155
Name 1155
VEGAS 1155
steam 1154
ja 1154
GEN@@ 1154
rescued 1154
bon 1153
inappropriate 1153
forbid 1153
jeopardi@@ 1152
seated 1152
proving 1152
encoun@@ 1152
thousands 1152
ci 1151
slips 1151
assive 1151
F.@@ 1151
operating 1151
River@@ 1151
denying 1151
cow@@ 1151
Spea@@ 1151
Buddy 1151
eless 1150
Mind 1150
genia 1150
existed 1149
temper@@ 1149
cookie 1149
Bates 1149
Jessie 1149
Pelt 1149
upper 1148
Y'know 1148
JI@@ 1148
Span@@ 1147
.O. 1147
lunatic 1147
Angeles 1146
fs 1146
setup 1146
OS 1146
'S. 1146
Norma 1146
sweater 1145
military 1145
poster 1145
quet 1145
Us 1145
shy 1145
swimming 1145
insecure 1145
Pap@@ 1145
construction 1144
fries 1144
Ma'am 1144
revealed 1143
tee 1143
independent 1143
High@@ 1143
Cle@@ 1143
VOICEOVER 1143
Winters 1143
Jer@@ 1142
ousy 1142
hyp@@ 1142
kan 1142
Shot 1142
zie 1142
enzie 1142
CHAM@@ 1142
Though 1141
ouch 1141
Screams 1141
en-- 1140
RE 1140
anx@@ 1140
dging 1140
Cap@@ 1140
Kids 1140
Present 1139
Italian 1139
gies 1139
realistic 1139
cca 1139
P.I. 1139
sures 1138
imum 1138
Tha@@ 1138
surprising 1138
'bout 1138
foster 1138
P.D. 1138
Q 1137
truce 1137
babysitter 1136
alys@@ 1135
pil@@ 1135
laws 1135
zens 1135
ballo@@ 1135
perman@@ 1135
weddings 1135
oxy@@ 1134
mented 1134
terri@@ 1134
route 1134
tearing 1134
Quite 1134
kayla 1134
Dave 1133
vodka 1133
cott@@ 1133
Interesting 1132
eration 1132
ambit@@ 1132
math 1132
nightmares 1132
fantas@@ 1132
BY 1132
accounts 1131
loyd 1131
spit@@ 1131
betrayal 1131
transferred 1130
searched 1130
aller@@ 1130
Coo@@ 1130
President 1130
bot 1130
incrimin@@ 1130
beaten 1129
Certainly 1129
Sen@@ 1129
ore 1129
eager 1128
eum 1128
flattered 1128
mari@@ 1128
vable 1128
crosses 1127
foc@@ 1127
sealed 1127
Nur@@ 1127
cab@@ 1126
gether 1126
nment 1126
ooth 1124
ager 1124
ander 1122
ships 1120
erci@@ 1119
Christ@@ 1119
hel 1119
MIC@@ 1118
dered 1117
Les@@ 1117
Jes@@ 1116
Sur@@ 1115
napp@@ 1114
eding 1113
diti@@ 1113
sole 1112
Mel@@ 1112
rector 1111
agre@@ 1111
mmers 1110
Lar@@ 1109
LOR@@ 1108
partic@@ 1106
ucks 1105
regre@@ 1104
bid 1103
Glo@@ 1103
Pho@@ 1102
una 1101
WIL@@ 1101
riff 1099
"@@ 1098
fred 1098
revea@@ 1096
Ph@@ 1096
adop@@ 1095
guel 1095
ee@@ 1091
earance 1091
etly 1090
prises 1090
eg@@ 1088
shou@@ 1086
evin 1086
CE@@ 1080
ouble 1078
restra@@ 1075
yal 1074
Mad@@ 1072
ustin 1072
eart 1071
mund 1071
tribu@@ 1070
sequ@@ 1067
overwhel@@ 1066
hen 1064
priv@@ 1064
ak@@ 1064
zer@@ 1060
finger@@ 1058
contr@@ 1057
Clar@@ 1057
nea@@ 1055
ENCE 1055
devo@@ 1054
embar@@ 1053
lee 1052
fur@@ 1050
SSO@@ 1049
gran@@ 1048
opport@@ 1048
idi@@ 1048
ish@@ 1044
bad@@ 1044
lt 1043
kit@@ 1041
Kir@@ 1041
ks@@ 1039
gy@@ 1037
surr@@ 1036
fab@@ 1036
pret@@ 1036
finit@@ 1036
pite 1035
Sea@@ 1035
ica 1034
distrac@@ 1034
OFF@@ 1033
valu@@ 1033
Cy@@ 1032
commit@@ 1030
ulti@@ 1030
grab@@ 1028
igh 1028
mma 1028
lid 1027
aly@@ 1027
swea@@ 1025
buil@@ 1024
PER 1023
aded 1023
ONE 1022
 1021
shir@@ 1018
Bai@@ 1017
Ros@@ 1016
jewel@@ 1016
pment 1014
niff@@ 1014
spir@@ 1011
icle 1010
jeal@@ 1006
ring@@ 1006
tsteps 1004
ny@@ 1003
ANE 1002
lian 1001
bility 1001
pis@@ 1001
attrac@@ 999
Tam@@ 999
MMMMMMMMMMMMMMMM@@ 999
after@@ 998
sity 994
rema@@ 991
C. 990
witne@@ 990
possi@@ 990
sear@@ 989
rus@@ 989
lap@@ 988
ann@@ 987
psychiat@@ 987
GAN 985
exha@@ 984
ght 983
sitter 982
pression 981
eral 980
interrog@@ 977
h-- 977
itors 975
ctra 975
Ame@@ 973
za 971
ves@@ 971
bber 970
Sch@@ 970
EX@@ 966
aff@@ 965
mes@@ 965
confron@@ 964
ima@@ 961
iden@@ 961
PD 960
inger 958
of@@ 958
ghtful 958
Ren@@ 957
‑@@ 957
champ@@ 953
professi@@ 953
tra 952
Sat@@ 951
authori@@ 950
ird 950
kni@@ 950
OVER 949
jump@@ 948
tween 947
gather@@ 946
esty 945
prac@@ 945
unted 943
Hun@@ 941
magaz@@ 939
vent 938
credi@@ 938
ress 937
polo@@ 936
wat@@ 932
encer 931
aul 931
mos 930
oma 930
encou@@ 930
ACK@@ 929
brie@@ 927
une@@ 927
Tho@@ 927
whisp@@ 926
Ear@@ 926
ulous 925
ita 923
A. 921
vam@@ 921
onable 920
ams 919
xie 919
avo@@ 918
?@@ 918
ens@@ 918
circum@@ 917
succe@@ 916
tton 916
thou@@ 914
~~~~@@ 911
grou@@ 910
O.@@ 909
secu@@ 909
nd 906
pist 906
Wy@@ 905
alcoho@@ 904
,@@ 903
WAY 903
ebe 903
expo@@ 900
like@@ 898
Hon@@ 898
ARA@@ 897
rass 896
immedi@@ 896
ACH 894
Forre@@ 893
compar@@ 889
cele@@ 889
ull 886
origin@@ 886
augh@@ 886
pers 885
distri@@ 885
Hop@@ 884
unity 880
choo@@ 880
Abbo@@ 880
NIC@@ 879
Valent@@ 878
lace 876
instruc@@ 876
ples 874
depend@@ 873
ket 873
stitu@@ 871
igh@@ 865
birth@@ 865
Sam@@ 862
Lau@@ 862
compu@@ 860
aa@@ 860
notic@@ 860
dia 859
ctors 859
yton 859
won@@ 859
Dani@@ 857
dale 857
riously 856
relea@@ 855
aper 854
ounds 854
gency 853
usi@@ 851
Swe@@ 851
Ni@@ 850
boy@@ 848
grat@@ 846
stom@@ 846
Spe@@ 846
Ci@@ 845
rescu@@ 844
J.@@ 843
Dun@@ 842
drun@@ 842
ength 841
lad 840
Barb@@ 839
ince 838
concentr@@ 838
milli@@ 837
public@@ 837
trau@@ 837
nifer 837
compli@@ 836
betra@@ 835
On@@ 835
scar 835
lyn 835
beli@@ 833
sever@@ 831
laun@@ 830
zz 830
him@@ 827
lemen 827
DU@@ 823
opin@@ 823
leen 821
cuffs 819
Angel@@ 819
mple 818
Ton@@ 818
gho@@ 817
dren 816
success@@ 815
tom 815
Rel@@ 813
Cause 813
loy@@ 812
forgi@@ 812
lu 812
Llan@@ 810
icer 807
cover@@ 805
know@@ 804
epy 803
TAR@@ 802
STER 802
ork 801
orney 801
inking 800
ple@@ 799
ult 798
charac@@ 798
Ari@@ 798
eful 798
overrea@@ 796
elev@@ 796
surg@@ 796
teri@@ 795
gment 793
ryl 793
trust@@ 792
Bain 790
cious 789
stem 789
orne 789
accus@@ 787
Son@@ 784
Eng@@ 784
eved 783
rect 783
eas 782
Screa@@ 781
chen 779
beha@@ 775
ept 773
MARSH@@ 773
Cour@@ 772
roman@@ 771
Kend@@ 771
admi@@ 769
chea@@ 768
Ron@@ 768
inti@@ 767
rench 766
recor@@ 765
corpor@@ 765
wait@@ 764
ught 764
listic 763
aband@@ 762
tempor@@ 761
helle 761
diffic@@ 760
onnie 760
icky 758
ordan 757
Val@@ 756
esterday 756
appoin@@ 756
assionate 753
NY 752
erence 752
elec@@ 750
leep 748
} 748
favo@@ 745
regu@@ 744
eah 744
INN 744
questi@@ 743
girl@@ 743
competit@@ 743
mies 742
stup@@ 741
io 740
{ 740
bi 740
FLA@@ 740
CHRI@@ 740
Loo@@ 739
ANDER 736
geon 733
shor@@ 732
ernity 732
ason 732
liter@@ 731
enga@@ 731
sour@@ 730
remin@@ 729
arter@@ 729
hart 729
BRIDGE 729
mally 728
CTOR 728
CLA@@ 728
mera 728
dem@@ 727
pack@@ 727
tis 726
aulding 725
sby 723
asha 723
anca 722
Slo@@ 722
eal@@ 722
mere 722
orton 721
determin@@ 720
gaz@@ 719
Ale@@ 719
Lock@@ 717
pati@@ 716
aul@@ 716
Willi@@ 716
wee@@ 715
Happ@@ 710
enjo@@ 709
fortunate 707
anno@@ 706
ú|ú|@@ 706
tro 705
chic@@ 705
gina 704
moti@@ 703
Brid@@ 703
Rid@@ 702
Hur@@ 701
interrup@@ 700
Exc@@ 696
lotte 696
fami@@ 695
od@@ 694
ITH 694
cycle 694
set@@ 693
thful 691
deta@@ 690
stantly 689
essi@@ 688
Tom@@ 688
shoul@@ 687
oline 687
erable 687
idence 687
andra 686
acey 682
influ@@ 678
power@@ 678
viously 677
itude 676
arran@@ 676
biolo@@ 675
Chand@@ 675
Crea@@ 674
tastic 672
eutenant 670
JAM@@ 670
STEV@@ 669
ister 668
hou@@ 666
ghtened 666
ano@@ 665
divor@@ 665
decid@@ 665
KIE 665
uty 664
BRA@@ 664
berty 663
Lit@@ 662
approac@@ 660
devast@@ 660
There@@ 660
reco@@ 658
MUS@@ 657
sandw@@ 654
ristian 653
suggest@@ 652
Mark@@ 651
import@@ 649
sch@@ 649
noon 645
jor 645
ison 645
beg@@ 645
secon@@ 643
vid 643
stand@@ 642
memo@@ 641
Shel@@ 640
kis@@ 638
Surpri@@ 637
thank@@ 636
IV@@ 635
Kor@@ 635
hn 634
g-- 632
lease 632
opp@@ 631
Dro@@ 630
disappoin@@ 630
ol 628
rever 628
perfe@@ 627
lice 627
Mus@@ 626
ults 625
ٱٱٱٱٱٱٱٱ@@ 625
issu@@ 624
Alex@@ 624
ghs 624
Den@@ 623
ut@@ 623
Cur@@ 623
bath@@ 622
artic@@ 622
poin@@ 622
your@@ 622
ATE 622
celebr@@ 622
rue 622
< 621
deliver@@ 621
assion@@ 621
ucker 620
LIN 619
LACE 618
ority 617
quick@@ 616
Rand@@ 616
kidnapp@@ 615
Dest@@ 613
Ann@@ 613
ffin 611
til 610
altern@@ 608
lowly 608
embarras@@ 607
vie 606
sick@@ 605
Hat@@ 605
Mir@@ 603
elli 603
WO@@ 602
VER 601
Nik@@ 600
essa 599
Myr@@ 599
poten@@ 596
voic@@ 595
tha 593
ola 592
CONTINU@@ 592
estab@@ 591
jeopar@@ 591
nically 591
shoo@@ 590
lated 589
See@@ 589
belon@@ 588
J. 588
niffles 587
Prof@@ 587
~ 585
iles 584
attemp@@ 584
distinct 583
rissa 581
consci@@ 580
adven@@ 579
s. 578
ELA@@ 578
ew 577
roy 577
scen@@ 574
inly 574
sources 574
occup@@ 572
DGE 571
stru@@ 571
equi@@ 570
noc@@ 570
Rober@@ 570
tender 568
rog@@ 566
reha@@ 566
parano@@ 565
dama@@ 564
thre@@ 564
inj@@ 563
urch 563
dience 563
usions 562
cle@@ 562
amon 560
SY@@ 559
gent 558
WN 557
Mont@@ 557
uckle 557
sitive 557
immy 557
isher 556
ATI@@ 556
KIR@@ 556
Spi@@ 554
‑ 553
Em@@ 552
Jack@@ 550
cho 550
rio 549
ksgiving 549
ggles 548
DALE@@ 548
exe@@ 546
believ@@ 544
Dou@@ 543
vis 542
ñ@@ 542
Zacc@@ 540
pers@@ 537
cellor 537
contin@@ 536
sand@@ 535
With@@ 534
erous 534
Cassa@@ 534
Lex@@ 533
enced 531
usty 530
BEN@@ 529
roomm@@ 528
od 527
uckling 524
jah 524
!@@ 523
esca@@ 523
eper 523
scrip@@ 522
Every@@ 522
therine 521
Sof@@ 520
ancy 520
ookie 519
BACK 517
deep@@ 516
clear@@ 516
make@@ 516
)@@ 515
camp@@ 515
mbo@@ 514
lear 513
vul@@ 513
dad@@ 513
easi@@ 512
ttom 512
financi@@ 511
Sab@@ 511
BI 510
Buchan@@ 510
nia 509
rible 508
classi@@ 507
mise 507
independ@@ 506
sident 505
invit@@ 505
Matthe@@ 504
helsea 504
ied 503
destro@@ 503
Green@@ 503
gir@@ 501
wel 501
simp@@ 500
week@@ 500
Bul@@ 499
rom 498
Lev@@ 496
faci@@ 495
agne 495
stal 494
Who@@ 493
Mau@@ 493
tell@@ 492
vices 492
| 492
Rac@@ 491
Hell@@ 491
surpri@@ 491
coinc@@ 490
explan@@ 488
ront 487
sie 487
THA 486
dine 485
Foo@@ 483
nec@@ 483
esa 483
abeth 482
brac@@ 481
occur@@ 481
ACK 481
ó@@ 481
bir@@ 481
costu@@ 480
vior 480
patter@@ 479
MR@@ 479
just@@ 479
employ@@ 478
ourth 478
Sti@@ 478
ardo 476
efully 475
cir@@ 475
child@@ 475
zza 474
ehouse 474
omen 474
pire 473
bias 472
Chic@@ 472
IC 472
adm@@ 469
certa@@ 468
ener@@ 467
diff@@ 466
illie 465
rai@@ 463
Van@@ 461
~@@ 459
screa@@ 459
ume 457
ests 457
anim@@ 457
gab@@ 456
mir@@ 456
enge 455
dd 455
Sop@@ 454
progre@@ 453
tball 453
Ameri@@ 452
offici@@ 452
certi@@ 452
annul@@ 452
illian 450
brief@@ 449
simi@@ 448
cere@@ 447
Cer@@ 447
Gabri@@ 447
centu@@ 446
ENING 446
abitha 446
awk@@ 444
Answ@@ 444
friend@@ 443
desper@@ 443
thle@@ 442
youn@@ 442
strate@@ 441
imal 441
tention 440
iriakis 440
Ala@@ 439
newsp@@ 437
THAN 437
sar@@ 436
yr@@ 435
sig@@ 433
Trac@@ 432
à 431
Cele@@ 430
deliber@@ 429
volun@@ 429
enna 429
isy 429
ALL@@ 429
inning 427
RICK 426
concl@@ 426
ural 426
eving 423
holas 422
rais@@ 421
tern@@ 421
blon@@ 421
lig@@ 420
KI 420
noa 420
help@@ 419
ester@@ 419
bbs 419
rip@@ 418
unic@@ 418
guil@@ 417
ousness 416
rew 414
ée 411
kies 410
dust@@ 410
ees 410
casin@@ 410
lliant 407
gor@@ 406
hono@@ 406
dul@@ 405
oin@@ 404
impre@@ 403
follo@@ 402
mista@@ 401
fortunately 401
ghters 401
Alli@@ 399
lope 399
busin@@ 399
inst 398
GHT 398
CHARD 398
000 397
usted 397
custo@@ 396
Ever@@ 395
Mex@@ 394
heal@@ 392
Lang@@ 391
mples 390
hem 390
myste@@ 387
veness 387
Adri@@ 387
Eri@@ 386
Georg@@ 383
tar 382
CAP@@ 382
resta@@ 381
ridic@@ 381
hall@@ 381
+ 381
orrow 379
chie 378
rugs 378
anni@@ 378
ption 374
bout 374
sant 373
colate 371
gall@@ 369
that@@ 368
strugg@@ 368
Out@@ 367
BBY 367
mili@@ 366
leman 366
zation 365
VO@@ 365
reme@@ 364
randon 364
unexpe@@ 363
gure 363
nett 362
Clau@@ 361
Tit@@ 361
Marc@@ 361
dney 360
wonder@@ 359
nit@@ 358
fai@@ 356
in' 356
Daw@@ 356
Wel@@ 356
dic 355
cris@@ 354
arrog@@ 353
DN@@ 352
eth 352
happen@@ 352
arrett 351
And@@ 350
Than@@ 349
vies 349
fail@@ 347
OUS 347
tice 347
athan 347
transfer@@ 345
massa@@ 345
discus@@ 344
aga@@ 344
safe@@ 343
veh@@ 343
gage 343
LOW 343
ENE 343
inct 342
neck@@ 342
uel 342
oundation 341
wai@@ 341
nah 341
SPI@@ 338
RESID@@ 337
Fir@@ 336
MC@@ 335
surance 334
WH@@ 332
deral 331
shua 331
tings 330
scription 330
gical 330
acciden@@ 329
Dal@@ 329
dir@@ 328
bastar@@ 328
resul@@ 327
ox@@ 327
episo@@ 327
Cell@@ 327
ident 325
olf 324
gins 324
sharp@@ 324
turo 324
xon 322
extre@@ 322
CONTRO@@ 321
ision 320
Austra@@ 318
GRI@@ 318
Perfe@@ 317
Jere@@ 316
Nar@@ 315
traff@@ 315
alu@@ 314
ç@@ 314
drin@@ 314
è@@ 313
feel@@ 313
eler 312
gge@@ 311
mily 311
schedu@@ 310
PHO@@ 310
wis 310
proble@@ 309
thera@@ 308
consequ@@ 308
Rav@@ 308
Vale@@ 308
DV@@ 306
symp@@ 304
elt 301
pregn@@ 301
Lind@@ 301
hanie 301
olas 301
fianc@@ 300
THER@@ 298
mson 298
dred 297
yde 296
sent@@ 295
lear@@ 294
meras 294
phany 293
BE 293
ROO@@ 293
KAR@@ 292
centr@@ 292
asy 290
motor@@ 290
goti@@ 289
ICA 289
YA 286
esc@@ 285
Fun@@ 278
Day@@ 277
yond 276
Sim@@ 276
enve@@ 273
ousin 273
Schu@@ 273
alco@@ 272
laus 272
andez 272
uckles 271
Rig@@ 271
essa@@ 270
ava@@ 270
ç 270
ico 268
DG@@ 267
lair 267
entr@@ 266
appropri@@ 266
corrid@@ 264
rand@@ 263
sten 262
q@@ 260
ringfield 258
advan@@ 257
happ@@ 256
orry 256
repu@@ 256
Stre@@ 255
ais@@ 255
confes@@ 255
BRIGA@@ 255
assign@@ 254
BBS 254
CKY 254
ORY 254
urant 253
mee@@ 253
resc@@ 253
licopter 251
Boy@@ 251
elet 251
DIER 251
anie 251
pheus 251
Dami@@ 250
suppo@@ 249
ands 248
peat 248
bbie 246
ius 244
apolo@@ 243
MENT 243
schedul@@ 242
lars 240
versary 240
ims 240
honey@@ 240
ident@@ 239
sme@@ 239
Enter@@ 239
lant 238
Corin@@ 238
half@@ 237
PC@@ 236
ext 236
zar 235
scena@@ 234
nic 234
iri@@ 234
spective 233
vil 232
langu@@ 231
wheel@@ 230
campa@@ 230
Jam@@ 229
sedly 229
suic@@ 228
Isab@@ 227
raig 227
tess 226
base@@ 225
Hay@@ 225
Juli@@ 223
victi@@ 222
arly 222
understand@@ 222
near@@ 222
Cass@@ 222
XON 222
yel@@ 221
vers@@ 221
them@@ 221
í@@ 221
photo@@ 220
kah 219
Tele@@ 217
particul@@ 217
Secon@@ 216
decis@@ 216
Ry@@ 213
asps 212
Ano@@ 212
dka 211
@@@ 211
vulner@@ 209
quest@@ 207
urse 207
ante@@ 204
ttany 204
MOU@@ 203
wah 201
enmore 201
heri@@ 200
rout@@ 200
¯ 200
LOR 199
paper@@ 198
stub@@ 197
sture 197
MICH@@ 195
EMIL@@ 195
;@@ 194
ony@@ 194
ITY 193
yla 191
oint 190
tten 189
surve@@ 189
Leon@@ 188
tham 188
fas@@ 187
icers 186
instinc@@ 186
Wes@@ 186
Oli@@ 185
heavi@@ 185
Bob@@ 185
Aust@@ 184
tney 184
tenant 182
dau@@ 182
gover@@ 181
porter 180
stery 180
fia 178
neath 178
inic 178
USE 178
Beli@@ 176
Viol@@ 176
Scor@@ 176
C.E@@ 175
stil@@ 174
attac@@ 173
sci@@ 173
Spin@@ 173
Laur@@ 173
rememb@@ 171
@ 171
• 170
pires 169
enda 168
@@ 167
CS@@ 167
eyebro@@ 166
RIA 166
entit@@ 166
gry 165
ayla 165
MMMMMMMM@@ 165
yce 164
ī@@ 164
@@ 163
Joh@@ 163
lever@@ 160
differ@@ 159
Camer@@ 159
LIAN 159
succ@@ 158
evi@@ 158
dez 157
stances 157
Wyn@@ 157
•@@ 157
ishment 156
enth@@ 156
apy 156
mare 154
unex@@ 154
oman 153
esting 153
certific@@ 152
fortun@@ 152
minu@@ 151
threa@@ 151
brary 150
 150
tective 150
ild 149
aleb 149
Hawai@@ 149
trage@@ 149
Mean@@ 148
illon 148
ê@@ 147
VIC@@ 146
John@@ 146
Rosa@@ 146
ٱ 146
bage 145
gree 145
Bull@@ 142
messa@@ 141
dess@@ 141
anto 141
kic@@ 140
licop@@ 139
stead 139
MMMM@@ 138
_@@ 137
|@@ 137
lifornia 137
ñ 137
delia 136
BUFF@@ 135
roduc@@ 134
BOO@@ 132
holi@@ 132
arra@@ 131
mory 131
topsy 131
mpa@@ 130
É 130
pie@@ 129
Oak@@ 129
Tex@@ 128
vvie 128
Rever@@ 125
Wait@@ 125
ketball 125
Ñ@@ 124
É@@ 123
Roc@@ 123
selves 123
scr@@ 122
assur@@ 121
ome 121
elevision 121
alia 121
itar 121
Aid@@ 120
promi@@ 120
ambul@@ 120
gements 120
hara 119
Youn@@ 119
hour@@ 118
dden 118
Clear@@ 118
Isa@@ 118
endy 117
BROO@@ 117
.O@@ 116
OE 116
♫ 116
derick 115
ë 115
Rebe@@ 114
remely 114
convers@@ 114
Bes@@ 114
Clu@@ 114
metery 113
opher 113
æ@@ 113
nephe@@ 112
Lak@@ 112
Feli@@ 111
xt 110
Buc@@ 108
Shir@@ 108
SID@@ 107
signi@@ 106
Nad@@ 106
efer 106
ghe@@ 105
dwin 105
%@@ 104
dette 104
DIS 100
wen 100
Sud@@ 99
relev@@ 99
iso@@ 99
í 99
dison 98
vil@@ 98
ú@@ 98
bins 97
» 97
ople 97
Ral@@ 97
een 97
hie 96
illance 95
ilable 95
« 94
ggest 93
SWEE@@ 93
ayl@@ 93
ELA 93
ü@@ 92
ristina 92
Sny@@ 92
occ@@ 91
assion 91
cust@@ 91
` 90
erra 90
asha@@ 89
alie 89
Indust@@ 89
sacri@@ 88
leigh 88
SLO@@ 87
Flash@@ 86
fice 86
ende 85
risten 85
sud@@ 84
cazar 84
Dom@@ 83
juries 83
expla@@ 83
actly 82
whel@@ 82
FLASH@@ 82
finitely 82
gratul@@ 82
neighbor@@ 80
>@@ 80
SF@@ 79
enn 79
TAIN 79
Stef@@ 79
weap@@ 78
$@@ 78
â@@ 78
Jess@@ 78
novan 77
Announ@@ 76
oran@@ 76
Ñ 76
ٱ@@ 76
stol@@ 75
igi 75
á@@ 75
specially 75
performan@@ 75
threaten@@ 75
Whisp@@ 75
ٱٱٱٱ@@ 75
CONT@@ 74
sugge@@ 74
zee 74
loween 74
emoti@@ 73
thom@@ 73
SUS@@ 72
VOIC@@ 72
iney 72
inese 72
ording 71
elia 70
ould 70
bastian 69
= 68
HODG@@ 68
ó 68
enzo 67
Tayl@@ 67
iki 67
VAU@@ 66
nerv@@ 66
eri 66
pris@@ 65
GAS 65
yler 65
'D 65
Lis@@ 64
Massi@@ 64
Aman@@ 64
Falcon@@ 64
interest@@ 63
á 63
ï@@ 62
® 62
þ@@ 62
procedu@@ 61
cording 61
convinc@@ 60
Ita@@ 60
Vinc@@ 60
Sob@@ 59
relation@@ 58
Capp@@ 57
Morg@@ 56
pril 56
HALL@@ 55
ú 55
CAS 55
reen 54
rator 53
toms 53
ٱٱ@@ 53
Suz@@ 52
aron 52
Abi@@ 51
@@ 51
PART@@ 50
zzie 50
thos 50
answ@@ 50
Edu@@ 50
BRENN@@ 49
gile 49
legit@@ 48
© 48
Quarter@@ 48
troom 48
stud@@ 47
gom@@ 46
rane 46
ä@@ 45
ô@@ 45
ellent 45
opar@@ 45
Hod@@ 45
ROMAN@@ 45
sunder@@ 45
mares 44
Veron@@ 44
Pai@@ 44
dora 43
rote 43
ylan 43
Saman@@ 43
JACK@@ 42
chall@@ 42
thous@@ 42
Dw@@ 42
\ 41
bast@@ 41
thur 41
Ine@@ 40
lena 40
Eliz@@ 40
ré 39
yor 39
î@@ 39
hind 38
obvi@@ 38
Mr@@ 37
ablo 37
Hug@@ 37
û@@ 36
D.N@@ 36
ridan 36
eview 36
garet 36
cht 35
yrus 35
`@@ 35
Sinc@@ 34
WEE@@ 33
Elev@@ 33
rong 33
Gret@@ 33
Ü@@ 33
Imag@@ 32
rooke 32
Berna@@ 32
Nig@@ 31
cass@@ 31
itlin 31
autho@@ 29
SOO@@ 29
essary 29
vile@@ 29
¿ 29
¯@@ 29
Secu@@ 28
balcon@@ 28
usional 28
pio 28
=@@ 27
sery 27
\@@ 27
niture 27
CHEL 27
gomery 27
usu@@ 26
DiMer@@ 26
Hern@@ 26
soldi@@ 25
PHER 25
Dale@@ 25
Carlo@@ 25
recht 25
À@@ 25
alem 24
Trip@@ 24
° 23
Epi@@ 23
loe 23
haps 23
tella 23
especi@@ 23
þ 23
toria 22
½ 22
Rox@@ 22
SSOM 22
nh 22
lifor@@ 22
Neill 22
Dere@@ 21
 21
VERO@@ 21
PAI@@ 21
​@@ 21
£ 21
Brenn@@ 20
{@@ 20
~~@@ 20
bother@@ 20
<@@ 20
DROOM 20
Emme@@ 20
demere 20
Té@@ 20
Anth@@ 19
Fras@@ 19
colm 19
Trev@@ 18
fano 17
INU@@ 17
½@@ 17
bably 16
drey 16
}@@ 16
soever 16
THERINE 16
fere 16
edith 16
WEN 16
cere 15
Dei@@ 15
€@@ 15
GEE 15
incredi@@ 15
Gai@@ 14
è 14
prep@@ 14
atie 14
ù 13
fant@@ 13
solutely 13
œ@@ 13
ither 13
angeline 13
@@ 12
VOICE@@ 12
estly 12
Aub@@ 12
Vaugh@@ 11
CHRISTO@@ 11
haron 11
Ã 11
Á@@ 11
Rafa@@ 11
itney 11
ybe 10
DNEY 10
Certa@@ 10
'know 10
Daph@@ 10
Lorel@@ 10
glas 10
ǽ@@ 10
peci@@ 9
CHAND@@ 9
amn 9
yllis 9
^@@ 8
 7
ween 7
@@ 7
ņ@@ 7
^ 7
ª 7
Genevi@@ 7
Joss@@ 7
tonio 7
Ç@@ 6
ã@@ 6
Gris@@ 6
PHOE@@ 6
Veg@@ 6
™ 6
ι 6
arently 6
ö@@ 6
r. 6
ò@@ 6
ð@@ 6
à@@ 6
STEWAR@@ 5
gail 5
'am 5
essarily 5
Æ@@ 5
船 5
ELAI 5
stilt@@ 5
„ 5
@@ 5
theart 5
À 4
YTON 4
 4
Quarterma@@ 4
¢ 4
å@@ 4
ã 4
ý@@ 4
Þ@@ 4
ǽ 4
Ã@@ 3
VICTO@@ 3
BARA 3
denly 3
È@@ 3
­@@ 3
s*@@ 3
TAY@@ 3
akis 3
´ 3
ás 3
म@@ 3
ा@@ 3
ommy 3
å 2
º 2
¼ 2
psychi@@ 2
ę@@ 2
ι@@ 2
rystal 2
ê 2
ë@@ 2
â 2
ß 2
lause 2
ह@@ 2
ु@@ 2
त 2
्@@ 2
ा 2
ं@@ 2
ग@@ 2
े 2
ज@@ 2
¡ 2
ẻ 2
utiful 2
˯ 2
spital 2
ō 2
Siob@@ 2
悠 2
♩ 2
♬ 2
¿@@ 2
ú|@@ 2
ň@@ 2
ô 1
ø@@ 1
¼@@ 1
˜@@ 1
º@@ 1
飯@@ 1
Â@@ 1
£@@ 1
SARA@@ 1
Ž@@ 1
ī 1
ḗ 1
ŕ 1
η@@ 1
 1
殿@@ 1
稚 1
ń@@ 1
κ@@ 1
ό@@ 1
δ@@ 1
¢@@ 1
К@@ 1
о@@ 1
г@@ 1
а 1
ӭ@@ 1
Ó@@ 1
æ 1
ð 1
ZIV@@ 1
×@@ 1
‚ 1
˚ 1
ö 1
ब@@ 1
अ@@ 1
च@@ 1
छ@@ 1
स@@ 1
ी@@ 1
क@@ 1
ौ@@ 1
ू@@ 1
द@@ 1
घ@@ 1
र 1
ो 1
भ@@ 1
ी 1
त@@ 1
र@@ 1
न@@ 1
व 1
ई 1
㱠@@ 1
@@ 1
ß@@ 1
ハ@@ 1
ー@@ 1
ト 1
ả 1
痴 1
 1
³@@ 1
Â 1
ō@@ 1
wever 1
夕@@ 1
卙@@ 1
知 1
therwise 1
¬@@ 1
hatever 1
interru@@ 1
